<unk>	0
<s>	0
</s>	0
▁	-3.20312
s	-4.52058
▁de	-4.85621
▁क	-5.10217
e	-5.26407
▁a	-5.30739
a	-5.59363
▁la	-5.70608
i	-5.70736
▁र	-5.73163
t	-5.80198
▁ह	-5.81122
▁स	-5.81583
▁म	-5.87607
n	-5.89197
▁in	-5.89755
▁the	-5.89875
▁i	-5.97386
▁க	-5.98106
▁त	-6.01009
▁en	-6.02341
▁य	-6.03408
o	-6.07026
▁न	-6.07659
ه	-6.12021
en	-6.17855
ی	-6.20026
▁น	-6.20801
▁த	-6.21649
▁que	-6.25257
▁ल	-6.26476
▁un	-6.32093
r	-6.32987
m	-6.35589
の	-6.38233
的	-6.40724
▁प	-6.41672
▁و	-6.45876
▁le	-6.49625
▁to	-6.49733
▁व	-6.50175
▁в	-6.50329
▁ம	-6.50355
d	-6.50832
▁ப	-6.51507
er	-6.52584
u	-6.54111
▁द	-6.54743
▁se	-6.54852
▁na	-6.56004
▁o	-6.56688
▁ज	-6.56958
▁د	-6.58594
▁and	-6.60148
▁на	-6.63401
が	-6.65746
▁и	-6.67887
▁el	-6.67988
▁ட	-6.69034
y	-6.6948
▁et	-6.69868
▁of	-6.71333
▁y	-6.71479
▁no	-6.71616
ة	-6.73213
▁di	-6.76141
▁ال	-6.76313
▁کے	-6.79661
es	-6.79772
▁tom	-6.8048
▁est	-6.80735
▁es	-6.81705
▁ல	-6.82047
а	-6.8359
▁ہے	-6.85289
и	-6.86624
に	-6.87128
▁میں	-6.87886
▁l	-6.89085
▁ท	-6.89121
ي	-6.8932
е	-6.89461
▁ya	-6.9
▁من	-6.9088
▁die	-6.91812
▁it	-6.93391
▁ய	-6.9348
は	-6.9395
を	-6.94317
▁في	-6.95413
▁is	-6.96693
▁ve	-6.96911
▁da	-6.97841
▁ม	-6.98306
▁ர	-6.9846
▁ன	-6.98895
▁ற	-7.00686
ed	-7.00755
▁e	-7.01338
▁کی	-7.01996
ا	-7.02855
l	-7.03526
▁อ	-7.05031
te	-7.05385
▁on	-7.0665
k	-7.07047
▁du	-7.07083
▁او	-7.07475
▁ग	-7.08461
▁ब	-7.09916
▁me	-7.10323
▁ง	-7.10433
▁ச	-7.1046
▁à	-7.13279
의	-7.13424
▁s	-7.13447
▁je	-7.1396
▁ก	-7.14215
▁ट	-7.14267
▁do	-7.14386
▁थ	-7.14521
▁een	-7.15055
▁d	-7.15636
▁வ	-7.15881
▁con	-7.15908
▁t	-7.15919
▁په	-7.17759
ہ	-7.18371
▁for	-7.19543
▁श	-7.19803
▁para	-7.20922
▁van	-7.21271
▁கள	-7.22454
▁il	-7.23949
▁در	-7.24022
▁บ	-7.25094
de	-7.26465
▁ക	-7.26927
▁bir	-7.2748
▁और	-7.2789
▁ว	-7.28624
▁c	-7.29126
▁не	-7.29306
an	-7.29399
▁pas	-7.29454
ing	-7.29719
▁m	-7.30386
▁was	-7.30424
c	-7.30595
▁ந	-7.30669
で	-7.31399
▁w	-7.31868
▁م	-7.3218
▁с	-7.32754
re	-7.32843
▁und	-7.33067
▁ส	-7.33355
▁ด	-7.34311
▁al	-7.34802
le	-7.35705
▁า	-7.35904
▁ist	-7.35963
을	-7.36227
ت	-7.36583
▁च	-7.36981
了	-7.3736
▁да	-7.38077
▁be	-7.38366
▁به	-7.38519
is	-7.39333
й	-7.3941
▁ne	-7.40408
▁اور	-7.4097
ات	-7.41205
ې	-7.41413
▁за	-7.41521
▁het	-7.41656
ta	-7.41759
▁les	-7.41993
▁lo	-7.42258
▁ا	-7.42332
p	-7.42346
ng	-7.42376
da	-7.43109
는	-7.43525
و	-7.4364
▁سے	-7.4419
▁ich	-7.44347
▁wa	-7.44842
▁den	-7.44877
▁una	-7.44971
▁por	-7.45203
▁ന	-7.45254
um	-7.4591
ے	-7.46376
▁der	-7.46544
us	-7.47134
▁اس	-7.47251
▁är	-7.48205
▁nicht	-7.48298
▁ए	-7.48801
▁as	-7.49589
ne	-7.49654
я	-7.51691
▁so	-7.52722
▁um	-7.53126
▁er	-7.53643
▁भ	-7.53908
▁ค	-7.55797
na	-7.56497
▁te	-7.57146
▁ma	-7.57823
▁एक	-7.57994
▁να	-7.58364
▁das	-7.58474
la	-7.59396
▁по	-7.59636
▁ต	-7.60236
▁ان	-7.60627
h	-7.61149
▁ड	-7.61163
▁em	-7.619
▁می	-7.61914
▁an	-7.61963
▁και	-7.62128
▁des	-7.62194
▁su	-7.63328
▁that	-7.6336
х	-7.64217
ly	-7.645
▁از	-7.64871
と	-7.65836
ă	-7.65866
▁pour	-7.6612
z	-7.66665
▁ของ	-7.66766
▁และ	-7.67088
▁của	-7.6737
ς	-7.67435
▁ष	-7.67605
▁το	-7.68163
▁los	-7.68504
▁است	-7.68659
▁ب	-7.68936
to	-7.69046
▁ha	-7.6927
▁del	-7.69651
ar	-7.70075
▁một	-7.70319
▁ร	-7.70407
에	-7.7068
이	-7.70763
ul	-7.70838
▁کو	-7.70968
▁от	-7.71232
b	-7.71747
у	-7.7209
▁ta	-7.72209
も	-7.72568
▁per	-7.72881
in	-7.73046
▁पर	-7.73341
▁si	-7.74002
g	-7.74614
▁کا	-7.74912
▁پر	-7.75136
ma	-7.75276
li	-7.75637
ية	-7.75754
ti	-7.75823
▁е	-7.75853
▁au	-7.76018
▁this	-7.76773
al	-7.77381
▁ل	-7.77415
do	-7.77838
▁op	-7.77864
▁p	-7.78108
▁man	-7.78183
▁at	-7.78199
▁và	-7.78343
ท	-7.78378
▁ni	-7.7924
은	-7.79336
т	-7.79485
м	-7.79633
▁ت	-7.79711
▁în	-7.8003
то	-7.80225
▁not	-7.80239
▁ख	-7.80622
▁tôi	-7.81433
▁على	-7.83419
▁را	-7.83914
é	-7.84332
م	-7.84989
น	-7.85024
▁zu	-7.85719
ह	-7.8582
▁что	-7.86009
▁ce	-7.86071
▁ध	-7.86093
ங	-7.86629
▁dan	-7.86642
▁kwa	-7.86653
▁ایک	-7.86952
وں	-7.8699
▁ள	-7.87401
▁he	-7.8775
▁کہ	-7.87759
о	-7.87989
▁là	-7.88461
et	-7.89236
ы	-7.8925
▁bien	-7.89293
si	-7.89497
os	-7.9005
▁mi	-7.90529
를	-7.90937
▁with	-7.91398
▁ย	-7.9202
▁b	-7.9235
▁ja	-7.92636
α	-7.92735
▁but	-7.92981
▁n	-7.93019
▁re	-7.9372
▁ي	-7.93758
▁که	-7.9387
▁une	-7.9406
▁نے	-7.94854
▁j	-7.94992
f	-7.94999
▁my	-7.95001
▁bu	-7.95071
▁qui	-7.95191
ch	-7.9541
▁you	-7.95504
▁फ	-7.95703
▁par	-7.96408
se	-7.96567
em	-7.9668
▁பட	-7.96799
▁การ	-7.969
▁mais	-7.98094
▁се	-7.98505
ร	-7.98601
가	-7.98675
▁yang	-7.99026
as	-7.99277
st	-7.99329
▁เป	-7.99497
▁có	-8.00104
▁ใน	-8.00118
在	-8.00895
是	-8.01234
▁uma	-8.01733
▁я	-8.01908
ni	-8.0191
ها	-8.01992
▁och	-8.02527
د	-8.02919
▁pe	-8.02968
л	-8.03274
▁ai	-8.03936
▁इस	-8.05006
ki	-8.05067
न	-8.05095
ra	-8.05124
▁الم	-8.05448
ge	-8.05707
at	-8.05901
ia	-8.06016
j	-8.06386
▁sur	-8.07546
та	-8.07645
ó	-8.0776
▁του	-8.08039
▁ver	-8.08059
ก	-8.08395
▁muy	-8.08546
▁za	-8.08731
v	-8.08798
▁ฉ	-8.09069
lar	-8.09212
▁son	-8.09959
▁non	-8.10081
し	-8.10274
▁om	-8.10755
di	-8.11143
▁با	-8.1133
▁che	-8.11797
▁é	-8.11894
▁είναι	-8.12161
▁como	-8.12305
▁कर	-8.12509
в	-8.12756
▁không	-8.12832
▁det	-8.12875
ов	-8.13087
nya	-8.13516
ie	-8.13706
▁کې	-8.14247
▁ہیں	-8.14267
ga	-8.1452
▁k	-8.14601
▁très	-8.14873
▁ein	-8.14892
▁las	-8.15085
▁യ	-8.15189
▁este	-8.1593
▁وال	-8.16027
▁z	-8.16201
▁ത	-8.1625
▁av	-8.16742
ci	-8.16917
▁أ	-8.17085
▁sehr	-8.17117
▁med	-8.17151
ต	-8.17884
▁छ	-8.17967
ى	-8.18004
▁com	-8.18021
ce	-8.18128
▁อง	-8.18438
ان	-8.18625
▁tu	-8.18686
ل	-8.18986
am	-8.19288
です	-8.19376
ون	-8.19441
▁그	-8.19472
ler	-8.19566
▁sie	-8.1961
▁dans	-8.19958
▁ن	-8.20127
me	-8.20238
ri	-8.20386
▁đã	-8.20453
▁नह	-8.20715
▁var	-8.21034
▁ณ	-8.21386
▁are	-8.21588
it	-8.21768
▁har	-8.2194
▁لا	-8.22322
▁این	-8.22356
▁ge	-8.22731
▁это	-8.23027
人	-8.23281
ว	-8.23394
ur	-8.23577
ndo	-8.23974
no	-8.23977
不	-8.24018
▁าง	-8.24101
▁آپ	-8.24161
▁está	-8.24279
上	-8.24422
▁os	-8.24698
▁چې	-8.24945
▁și	-8.25315
▁sa	-8.25343
▁για	-8.2537
ين	-8.25378
те	-8.25591
▁pero	-8.25799
▁ട	-8.26183
▁din	-8.2626
ม	-8.26432
क	-8.26463
▁ke	-8.26594
▁к	-8.26812
▁ได	-8.26938
▁ca	-8.27096
▁کیا	-8.27126
和	-8.27571
▁cu	-8.27977
▁یہ	-8.28195
▁her	-8.28258
▁από	-8.28704
▁nu	-8.28876
▁have	-8.28903
고	-8.29172
一	-8.30072
▁için	-8.30119
den	-8.30177
▁रह	-8.30237
▁ண	-8.30347
▁как	-8.30646
▁จ	-8.30799
ن	-8.31019
kan	-8.31098
有	-8.3148
el	-8.31942
▁các	-8.31948
大	-8.32028
▁ο	-8.32328
ment	-8.32335
▁ല	-8.32771
ku	-8.33282
ش	-8.33459
ka	-8.3392
▁am	-8.34022
wa	-8.34189
▁can	-8.34809
▁met	-8.34845
w	-8.34947
▁für	-8.35213
▁aber	-8.3529
▁vi	-8.35475
▁ما	-8.35605
▁че	-8.35754
sa	-8.35838
▁ป	-8.35979
ด	-8.36134
ten	-8.36486
nt	-8.36738
い	-8.36816
▁ไม	-8.37062
▁plus	-8.374
한	-8.37588
ح	-8.3765
ά	-8.37677
▁auf	-8.3794
ส	-8.37946
▁mit	-8.37951
中	-8.38256
▁η	-8.38613
อ	-8.38811
x	-8.38826
▁po	-8.38829
▁mary	-8.38904
▁आप	-8.3891
ca	-8.38946
▁they	-8.39446
▁που	-8.39454
▁อย	-8.39554
▁or	-8.40075
▁ล	-8.40139
▁som	-8.40169
vi	-8.40398
▁h	-8.40724
ter	-8.40894
▁voor	-8.41012
▁کر	-8.41025
▁v	-8.41175
▁cho	-8.41505
ین	-8.41857
ja	-8.41883
▁из	-8.41896
▁της	-8.41949
lo	-8.42104
▁được	-8.42106
▁ra	-8.42163
▁u	-8.42364
▁jeg	-8.42483
な	-8.42574
ந	-8.42599
ba	-8.42787
▁าน	-8.42825
▁dat	-8.42941
▁την	-8.43022
ой	-8.43104
▁på	-8.43391
ق	-8.43548
ом	-8.43618
から	-8.43691
▁у	-8.44183
か	-8.44339
▁പ	-8.44762
로	-8.4477
▁أن	-8.44943
▁att	-8.45045
▁με	-8.4508
▁ช	-8.4514
ή	-8.45948
ό	-8.45949
▁trong	-8.46453
▁له	-8.46521
ли	-8.46653
▁kan	-8.47441
した	-8.47506
▁những	-8.47575
▁han	-8.4778
ни	-8.47972
▁τα	-8.48238
도	-8.48495
▁co	-8.48826
▁என	-8.49165
▁ku	-8.49183
▁نہیں	-8.49214
ο	-8.49416
que	-8.49722
▁هم	-8.50427
▁auch	-8.5063
ك	-8.507
▁all	-8.51063
za	-8.51301
η	-8.51307
▁о	-8.51669
▁avec	-8.52867
ve	-8.52965
ung	-8.53214
▁war	-8.53273
▁habe	-8.53279
δεν	-8.53531
ko	-8.53764
▁è	-8.53804
▁रत	-8.53885
स	-8.53903
▁то	-8.54092
▁g	-8.54512
▁จะ	-8.54834
на	-8.54961
va	-8.54984
▁لل	-8.54989
ro	-8.55188
에서	-8.55324
ν	-8.55379
▁ई	-8.55398
▁gut	-8.55417
▁não	-8.55524
▁să	-8.5556
ya	-8.55629
id	-8.55989
▁ki	-8.56322
▁آن	-8.56504
▁ad	-8.5664
ите	-8.56735
▁но	-8.5697
ک	-8.56977
▁by	-8.57039
▁we	-8.57051
го	-8.57102
▁करन	-8.57323
▁super	-8.57576
mi	-8.57642
zi	-8.57827
ย	-8.57863
▁های	-8.58387
▁had	-8.58963
▁als	-8.59237
▁anh	-8.59427
▁one	-8.59625
▁over	-8.59687
▁गय	-8.59763
り	-8.59854
с	-8.60026
▁zijn	-8.60065
ε	-8.60114
▁年	-8.60398
mente	-8.60886
on	-8.6102
▁hat	-8.61037
س	-8.61209
▁ter	-8.61485
▁ण	-8.61507
과	-8.6167
▁อน	-8.61786
▁dos	-8.61848
ι	-8.62102
ει	-8.62175
用	-8.62378
ю	-8.62576
▁ik	-8.62815
gen	-8.63046
▁jag	-8.63128
▁người	-8.63668
た	-8.63693
▁sta	-8.63939
ر	-8.64012
be	-8.64493
▁đó	-8.64643
▁leider	-8.64922
ha	-8.65197
る	-8.65323
▁مع	-8.65574
▁va	-8.6574
する	-8.65781
▁nach	-8.65832
▁വ	-8.65997
il	-8.65997
▁ber	-8.66035
▁sich	-8.66415
▁ہو	-8.66576
▁wikipedia	-8.66621
▁ou	-8.66804
▁men	-8.66937
ou	-8.67725
▁bei	-8.67892
▁mon	-8.68123
▁سال	-8.68268
ste	-8.68323
▁كان	-8.68357
▁katika	-8.6837
年	-8.68555
▁พ	-8.68597
▁करत	-8.69121
or	-8.69641
▁вы	-8.69645
▁ab	-8.69707
▁mal	-8.69768
▁ழ	-8.69908
▁ച	-8.69941
р	-8.69966
д	-8.70232
ke	-8.70357
▁ser	-8.70378
ent	-8.70454
▁अपन	-8.70504
نا	-8.70551
ότι	-8.70638
man	-8.70682
gi	-8.70712
▁from	-8.7077
▁वह	-8.7077
▁very	-8.70791
지	-8.70869
▁جو	-8.70897
je	-8.71007
ть	-8.71031
▁bạn	-8.7122
▁我	-8.71324
▁وہ	-8.71325
▁wie	-8.71465
▁pro	-8.71479
인	-8.71538
เป	-8.71617
▁car	-8.71868
으로	-8.72019
ので	-8.72336
ant	-8.7241
して	-8.72538
出	-8.72573
▁tr	-8.72814
▁सकत	-8.72838
▁produit	-8.73052
ı	-8.73342
▁mai	-8.73559
▁до	-8.7387
▁بر	-8.7403
▁σε	-8.7413
▁θα	-8.74289
▁más	-8.7438
▁mir	-8.74683
но	-8.75034
ล	-8.75172
▁а	-8.75189
▁like	-8.75243
du	-8.75597
▁تو	-8.75696
ب	-8.75815
▁إلى	-8.75916
co	-8.75989
ä	-8.76091
就	-8.76175
▁том	-8.76337
ط	-8.76528
ir	-8.76741
ند	-8.7684
く	-8.76926
▁си	-8.76963
ção	-8.77297
▁aan	-8.77345
▁นท	-8.77486
▁sin	-8.77593
ค	-8.77765
▁aus	-8.77776
▁up	-8.77889
บ	-8.77894
▁era	-8.77986
▁fi	-8.78031
▁sind	-8.78127
ва	-8.78146
와	-8.78148
▁pada	-8.78164
▁이	-8.78469
や	-8.78658
▁सम	-8.78734
▁تر	-8.78961
▁так	-8.79037
▁ถ	-8.79092
▁ف	-8.79112
po	-8.79285
▁или	-8.79494
▁ته	-8.79513
к	-8.79802
ine	-8.79911
▁ze	-8.79943
▁са	-8.80086
▁f	-8.80365
che	-8.80597
▁това	-8.80607
▁von	-8.80684
▁ini	-8.80801
▁mu	-8.81037
▁eu	-8.81103
▁بعد	-8.81189
▁nie	-8.8126
▁don	-8.81399
▁ka	-8.81437
下	-8.81454
ен	-8.81642
▁dengan	-8.81897
▁التي	-8.82001
ado	-8.82003
▁دی	-8.82004
て	-8.82198
▁بال	-8.82203
어	-8.82381
ра	-8.82907
▁अन	-8.82914
▁với	-8.82991
ช	-8.83125
ver	-8.83411
▁im	-8.83432
نے	-8.83502
ص	-8.83645
▁ع	-8.83779
وا	-8.83854
ck	-8.83868
▁li	-8.83884
▁dari	-8.84001
▁ر	-8.84003
▁இர	-8.84083
▁ผ	-8.84091
▁ओ	-8.84215
▁वर	-8.845
▁تھا	-8.84505
▁qu	-8.84803
▁af	-8.84897
▁झ	-8.84983
ες	-8.85016
▁kann	-8.85054
▁new	-8.85062
▁nó	-8.85235
▁س	-8.85442
다	-8.85646
▁ei	-8.85674
з	-8.8574
▁วย	-8.85912
ス	-8.85926
ω	-8.86063
ь	-8.86071
ถ	-8.86265
▁để	-8.86304
▁یا	-8.86593
▁för	-8.866
leri	-8.8663
▁eine	-8.8673
der	-8.86748
▁his	-8.86882
▁عن	-8.86963
pi	-8.86976
▁เขา	-8.8704
▁ข	-8.87232
▁یک	-8.87288
▁sont	-8.87377
▁vous	-8.8741
mu	-8.87866
ları	-8.87912
▁dem	-8.87924
pa	-8.87924
▁بار	-8.88244
ار	-8.88262
都	-8.88348
ет	-8.88529
▁ben	-8.88642
▁się	-8.89048
un	-8.89236
ч	-8.89278
▁ko	-8.89435
▁has	-8.89752
ز	-8.89769
ка	-8.89807
には	-8.89814
ع	-8.89822
ني	-8.89894
▁nur	-8.90057
are	-8.90059
▁στο	-8.90183
ته	-8.90283
▁ένα	-8.90441
خ	-8.90453
▁بھی	-8.90455
▁उस	-8.90528
mo	-8.90669
▁для	-8.90755
▁ba	-8.90848
rum	-8.90939
▁ണ	-8.91128
н	-8.91192
▁ซ	-8.91206
▁họ	-8.91275
▁وي	-8.91308
▁door	-8.91447
▁هو	-8.91543
▁will	-8.91741
ut	-8.91763
ми	-8.91764
ada	-8.91803
▁ര	-8.9183
地	-8.91976
会	-8.91999
分	-8.92155
▁tidak	-8.92233
▁μια	-8.92234
▁แต	-8.92244
▁bon	-8.92347
اء	-8.92408
не	-8.92541
▁при	-8.92645
▁mis	-8.92716
ого	-8.92739
▁cha	-8.92841
ш	-8.92872
he	-8.93221
▁dia	-8.93296
ze	-8.93429
▁niet	-8.93504
go	-8.93661
ist	-8.93708
▁रक	-8.93728
▁เพ	-8.93894
ла	-8.9394
ción	-8.93942
▁just	-8.93975
п	-8.94204
ρ	-8.94511
▁он	-8.94622
▁οι	-8.94637
im	-8.94715
手	-8.94764
▁go	-8.94802
í	-8.94937
▁esta	-8.95008
▁دي	-8.9509
▁mas	-8.9516
▁لم	-8.95528
▁ء	-8.95614
▁out	-8.9569
ور	-8.96144
▁thể	-8.9649
也	-8.9658
هم	-8.96741
本	-8.96779
▁lui	-8.9687
▁റ	-8.96893
▁अध	-8.96966
ic	-8.97313
▁ยน	-8.97496
▁ex	-8.97641
▁uit	-8.97652
ー	-8.97721
▁hij	-8.97801
到	-8.97923
▁ile	-8.97989
ル	-8.98069
▁മ	-8.98139
ho	-8.98426
▁great	-8.9854
त	-8.98548
ال	-8.98642
▁พวกเขา	-8.9895
lu	-8.99007
▁were	-8.99199
▁τους	-8.99294
▁sự	-8.99487
ę	-8.995
ές	-8.99711
▁gi	-8.99833
▁them	-8.99946
▁olarak	-9.00135
好	-9.00153
▁she	-9.00501
▁هذا	-9.00752
ей	-9.00851
ą	-9.00931
▁των	-9.00941
▁τον	-9.00946
▁हम	-9.01173
▁ho	-9.01293
ки	-9.01484
ken	-9.01508
bi	-9.01538
▁kama	-9.01567
▁inte	-9.01623
▁ذلك	-9.01754
▁get	-9.01994
子	-9.02124
พ	-9.02256
▁uh	-9.02257
า	-9.02327
▁ك	-9.02385
▁care	-9.0267
▁elle	-9.02825
भ	-9.02829
ف	-9.02853
▁fa	-9.02986
க	-9.0304
ся	-9.0326
ата	-9.03342
▁گیا	-9.03573
多	-9.03684
υ	-9.03697
wi	-9.03731
ண	-9.03813
ल	-9.03948
我	-9.03993
▁तर	-9.04032
ら	-9.04084
他	-9.04118
▁طور	-9.04286
cia	-9.04316
ئ	-9.04321
▁foi	-9.04333
日	-9.04408
▁good	-9.04579
tor	-9.05159
▁ikke	-9.06006
ло	-9.06073
▁çok	-9.06303
很	-9.06476
ем	-9.0648
څخه	-9.06621
io	-9.06686
ர	-9.06703
ول	-9.06763
▁km	-9.06823
▁daha	-9.06849
ได	-9.06958
▁time	-9.0712
غ	-9.07328
ونو	-9.07458
▁if	-9.0747
▁ở	-9.07476
ek	-9.07517
men	-9.07799
ton	-9.07937
μ	-9.08145
เร	-9.0821
▁ها	-9.08235
▁عام	-9.08272
▁ยง	-9.08503
sta	-9.08625
▁peu	-9.0863
▁अ	-9.08692
lan	-9.08717
▁when	-9.08739
ers	-9.08781
▁बह	-9.0879
▁aku	-9.08823
后	-9.08828
ak	-9.08846
ele	-9.08942
▁sunt	-9.0897
lı	-9.09024
▁تم	-9.0908
▁làm	-9.09111
lik	-9.09154
vad	-9.09172
▁उन	-9.09216
ของ	-9.09268
ая	-9.09275
tu	-9.09322
▁เก	-9.0937
ger	-9.09457
ü	-9.09499
لو	-9.09832
tion	-9.09846
ł	-9.09919
▁الى	-9.10065
ju	-9.10136
▁ut	-9.10202
ion	-9.10277
پ	-9.10391
▁calidad	-9.10479
▁றத	-9.10551
▁fost	-9.10757
▁would	-9.10762
▁also	-9.10856
ما	-9.10899
же	-9.11275
▁these	-9.11293
▁what	-9.11386
ation	-9.11493
▁نه	-9.11497
水	-9.11546
یں	-9.11604
▁ấy	-9.11737
▁ты	-9.11762
nie	-9.11913
▁chúng	-9.12105
ig	-9.12234
力	-9.12236
▁film	-9.12245
▁fait	-9.12249
ۍ	-9.12415
では	-9.12426
被	-9.12804
ven	-9.12865
ст	-9.12889
ج	-9.12946
▁till	-9.13059
ini	-9.13107
able	-9.13139
ks	-9.13166
ําหร	-9.13196
▁see	-9.132
기	-9.13364
mos	-9.13388
리	-9.13399
▁ama	-9.1357
って	-9.13571
ad	-9.13669
▁ใช	-9.13706
着	-9.13798
▁الت	-9.13918
อย	-9.13941
해	-9.13994
म	-9.14006
▁เร	-9.14119
▁r	-9.14145
▁như	-9.14242
hich	-9.14265
며	-9.14288
▁você	-9.1449
▁സ	-9.14786
▁ങ	-9.14868
▁년	-9.14974
▁его	-9.15027
ud	-9.15048
▁الا	-9.15082
จ	-9.15249
▁τη	-9.15311
ونه	-9.1536
▁că	-9.15597
▁untuk	-9.15812
後	-9.15987
ουν	-9.16164
ye	-9.16181
ów	-9.16225
▁ده	-9.16329
▁دو	-9.16374
▁entre	-9.16584
ului	-9.16644
▁αυτό	-9.1668
▁تا	-9.16791
小	-9.16809
高	-9.16914
dos	-9.16988
▁าย	-9.16998
▁他	-9.17137
▁sua	-9.17185
▁под	-9.17193
▁வர	-9.17193
▁mehr	-9.17357
家	-9.17472
▁sẽ	-9.17518
名	-9.17561
nın	-9.17693
▁ساتھ	-9.17704
事	-9.17898
á	-9.18052
▁ความ	-9.18067
gu	-9.18101
▁sobre	-9.18118
说	-9.1824
▁use	-9.18343
▁但	-9.18565
▁dass	-9.1862
ไม	-9.18665
▁ق	-9.18669
▁سره	-9.18736
τ	-9.18754
▁noch	-9.18768
len	-9.18859
▁เม	-9.18921
ป	-9.19019
tre	-9.19104
▁ci	-9.19266
zo	-9.19352
▁نو	-9.19434
▁ஒர	-9.19447
ere	-9.19454
▁itu	-9.19504
▁கப	-9.19508
▁يو	-9.19584
ия	-9.19659
ram	-9.19751
▁много	-9.19843
▁کار	-9.20087
자	-9.20123
ty	-9.2015
要	-9.20191
▁tiene	-9.20424
▁수	-9.20527
ない	-9.20625
ner	-9.20759
▁đến	-9.20826
▁все	-9.2084
▁parte	-9.20969
나	-9.21027
ப	-9.21057
▁பத	-9.21158
▁mo	-9.21176
▁tout	-9.21185
وي	-9.21393
▁more	-9.21398
▁min	-9.21412
bu	-9.21448
▁کرنے	-9.21455
ข	-9.21469
▁sau	-9.21496
ซ	-9.21626
▁كل	-9.2172
य	-9.21835
ض	-9.21873
▁dit	-9.21947
看	-9.22022
面	-9.22228
来	-9.22333
▁ac	-9.22386
nd	-9.22415
▁bin	-9.22739
▁यक	-9.22806
▁olan	-9.22834
▁x	-9.2289
र	-9.2297
έ	-9.23058
▁तक	-9.23076
点	-9.23084
bo	-9.23105
nda	-9.2323
pe	-9.23312
▁หร	-9.23425
得	-9.23471
so	-9.23485
▁जन	-9.23539
▁qualité	-9.23642
ٹ	-9.23653
▁ли	-9.23671
▁werd	-9.23803
▁โดย	-9.23811
等	-9.23888
▁دا	-9.23925
▁был	-9.23955
▁product	-9.23956
▁ای	-9.23957
所	-9.24056
▁ar	-9.24135
sse	-9.2415
▁برای	-9.24274
▁well	-9.24309
ти	-9.24437
▁after	-9.24493
ध	-9.24518
▁أو	-9.24571
ました	-9.24676
ți	-9.24685
▁anno	-9.24718
▁top	-9.24747
ன	-9.24765
▁г	-9.25126
生	-9.25285
사	-9.25344
▁شده	-9.25344
ry	-9.25395
▁từ	-9.25492
▁diese	-9.25543
sen	-9.25559
land	-9.25639
اد	-9.25658
ων	-9.25769
回	-9.25908
▁بن	-9.25969
▁خ	-9.26095
▁ça	-9.26285
ます	-9.26437
게	-9.27017
▁बन	-9.27026
และ	-9.27199
者	-9.27208
ро	-9.27312
▁کرد	-9.2744
ici	-9.27448
ற	-9.27566
mp	-9.27589
ых	-9.27604
▁sono	-9.27652
nde	-9.27683
▁सर	-9.27845
▁seu	-9.27977
بر	-9.28173
ให	-9.28187
ż	-9.28312
部	-9.28323
vo	-9.28382
ez	-9.28488
▁தல	-9.28604
▁この	-9.28623
▁وا	-9.2863
▁inter	-9.29233
▁ให	-9.29261
ik	-9.29289
である	-9.29369
ود	-9.29421
▁شد	-9.29438
스	-9.29499
▁ήταν	-9.29518
ะ	-9.29562
前	-9.29581
σ	-9.29661
lig	-9.29688
为	-9.29731
เล	-9.29819
▁ไป	-9.29876
ato	-9.29945
▁même	-9.29951
▁amazon	-9.30178
ン	-9.30321
г	-9.30445
▁jest	-9.30873
dan	-9.30914
tan	-9.31002
▁일	-9.31309
▁在	-9.31387
த	-9.31439
▁واقع	-9.31485
▁todo	-9.31535
ί	-9.31606
▁ele	-9.31775
ster	-9.31834
▁biết	-9.31925
cha	-9.32017
▁هذه	-9.32052
▁എന	-9.32146
行	-9.32211
法	-9.32238
リ	-9.32313
▁dalam	-9.32379
▁only	-9.3239
cette	-9.32534
fa	-9.32577
▁года	-9.32599
we	-9.32647
った	-9.32675
tus	-9.32768
▁work	-9.32835
▁جس	-9.32937
▁الذي	-9.33023
▁than	-9.33035
ire	-9.33108
▁plan	-9.33115
▁producto	-9.33257
▁hay	-9.33283
▁mer	-9.3342
▁st	-9.33436
θ	-9.3345
amente	-9.33492
▁எ	-9.33494
▁adalah	-9.33716
ron	-9.33762
nin	-9.33797
▁bij	-9.33912
▁til	-9.34111
ие	-9.34142
▁know	-9.34165
▁einen	-9.34181
▁kuwa	-9.34182
▁schon	-9.34257
▁oli	-9.34292
▁alle	-9.3433
cy	-9.3447
▁san	-9.34512
▁الأ	-9.34646
▁dé	-9.34676
▁mm	-9.34836
▁ще	-9.34875
▁nada	-9.3488
▁μου	-9.34883
▁سر	-9.35035
▁rằng	-9.35075
ใน	-9.35165
使用	-9.352
▁mucho	-9.35233
▁này	-9.35303
物	-9.35304
▁about	-9.35313
หน	-9.35389
对	-9.3546
▁og	-9.35468
يا	-9.3554
▁هي	-9.3562
▁nói	-9.35654
▁டத	-9.35679
▁ہم	-9.35685
κ	-9.35717
▁คน	-9.35755
▁pi	-9.35959
▁있다	-9.35993
▁pre	-9.36017
▁dig	-9.36338
ڈ	-9.36418
χ	-9.36629
▁there	-9.36861
เม	-9.36882
為	-9.36912
сли	-9.36922
▁इन	-9.36942
▁precio	-9.37018
性	-9.37046
▁ش	-9.37047
▁sub	-9.37097
age	-9.371
▁poco	-9.37233
▁kas	-9.37319
時	-9.37368
entru	-9.37389
▁khi	-9.37457
ль	-9.37506
das	-9.37539
ま	-9.37556
▁αν	-9.37607
▁wenn	-9.37631
▁தம	-9.3779
π	-9.37803
▁कह	-9.37891
▁يې	-9.37906
th	-9.3791
▁بود	-9.3794
서	-9.37961
▁too	-9.37985
▁سو	-9.38098
▁vor	-9.38115
▁उप	-9.38193
▁mà	-9.38262
▁nhà	-9.38333
▁off	-9.38521
▁они	-9.38545
hi	-9.38585
▁ob	-9.38601
▁پ	-9.38626
でした	-9.38632
est	-9.3878
き	-9.38848
▁خود	-9.38944
学	-9.38958
огда	-9.39037
▁στην	-9.39049
▁grande	-9.39074
és	-9.39131
if	-9.39281
▁wieder	-9.39452
▁τις	-9.39541
ών	-9.39605
▁شي	-9.39622
▁suis	-9.39675
▁रण	-9.39699
す	-9.39735
ന	-9.39885
▁ൽ	-9.39908
ید	-9.39974
▁като	-9.40011
▁comme	-9.4006
ச	-9.4011
▁หน	-9.40201
▁come	-9.40229
tur	-9.40504
▁ठ	-9.4051
▁ми	-9.40551
ibus	-9.40595
하고	-9.4062
jo	-9.4064
▁ett	-9.40936
ée	-9.41067
ри	-9.41201
▁mig	-9.41233
▁раз	-9.41241
▁ห	-9.41246
ных	-9.41261
▁trop	-9.41288
يل	-9.41396
书	-9.41569
▁phải	-9.41724
なので	-9.41874
▁bo	-9.41882
▁etwas	-9.41937
б	-9.41993
▁fue	-9.42097
太	-9.42133
▁те	-9.4225
▁उत	-9.42292
▁نام	-9.42367
▁hai	-9.42411
▁ๆ	-9.42414
▁उसक	-9.42467
▁della	-9.42497
数	-9.42558
ão	-9.42802
▁th	-9.42916
▁உள	-9.42917
▁keine	-9.42943
▁تک	-9.42967
▁że	-9.43027
▁ہوں	-9.43029
▁ญ	-9.43061
▁但是	-9.43062
ting	-9.4329
▁αλλά	-9.43394
▁لئے	-9.43397
اس	-9.43447
▁étai	-9.43462
▁wir	-9.43471
γ	-9.43493
イ	-9.43509
ब	-9.43511
▁cô	-9.43649
δ	-9.43793
成	-9.43898
یم	-9.44025
son	-9.44099
▁casa	-9.44147
▁pa	-9.44247
▁porque	-9.44311
として	-9.44315
▁tra	-9.44522
اب	-9.44572
ят	-9.44613
ฟ	-9.44667
▁شهر	-9.44872
ผ	-9.44896
வ	-9.44956
φ	-9.44985
ica	-9.45077
内	-9.45159
▁کم	-9.45278
ου	-9.45309
ii	-9.45341
لا	-9.45419
▁чтобы	-9.45426
های	-9.4564
ラ	-9.45677
▁เรา	-9.45736
▁place	-9.4577
ام	-9.45838
sch	-9.45857
ж	-9.45901
▁gì	-9.45932
เก	-9.45956
ji	-9.46004
▁did	-9.46013
ria	-9.4603
▁mes	-9.46048
tar	-9.46058
ej	-9.4608
ку	-9.46108
نگ	-9.46118
ła	-9.46139
▁เด	-9.46141
ito	-9.46239
▁fit	-9.46316
ую	-9.46368
▁đ	-9.46463
یت	-9.46544
新	-9.46694
▁đi	-9.46746
per	-9.46784
cu	-9.46845
お	-9.46867
さ	-9.47071
▁qua	-9.47154
▁го	-9.47176
里	-9.47204
▁love	-9.47217
▁ri	-9.47233
▁buena	-9.47352
ang	-9.47376
▁mar	-9.47403
み	-9.47404
度	-9.47444
ذ	-9.47608
श	-9.47616
▁மற	-9.47653
ning	-9.47679
見	-9.4789
▁saya	-9.47925
tes	-9.47954
能	-9.47973
没有	-9.47993
▁زیادہ	-9.48006
された	-9.48153
▁पत	-9.48256
▁điều	-9.48771
文	-9.48872
га	-9.48971
▁mich	-9.49008
▁것	-9.49094
▁об	-9.49309
lich	-9.49337
op	-9.49393
อร	-9.49483
ной	-9.49487
▁கல	-9.49634
▁preis	-9.49706
▁ao	-9.49786
▁other	-9.49822
▁first	-9.49825
▁så	-9.49892
ando	-9.49921
▁जब	-9.49979
▁شود	-9.50019
зи	-9.50034
ade	-9.50039
▁sus	-9.5013
方	-9.50286
▁vào	-9.50324
وس	-9.50356
nia	-9.50409
▁về	-9.50625
ห	-9.50755
▁ali	-9.50861
ですが	-9.50888
чи	-9.50925
▁naar	-9.50972
国	-9.51027
τε	-9.51073
▁been	-9.51098
▁कम	-9.51173
▁کال	-9.51199
▁really	-9.51202
ran	-9.51251
té	-9.51291
入	-9.51297
▁cum	-9.51303
tas	-9.51408
合	-9.51479
▁công	-9.51511
▁nhưng	-9.51515
ach	-9.51537
ted	-9.51618
車	-9.51687
▁reçu	-9.51702
▁didn	-9.51739
天	-9.51892
ري	-9.51929
元	-9.51962
▁அத	-9.51967
▁جاتا	-9.51973
▁شو	-9.51974
体	-9.51987
رو	-9.52012
ling	-9.5205
▁cả	-9.52068
mak	-9.52135
▁viel	-9.52167
▁هغه	-9.5218
õ	-9.52285
次	-9.52388
▁sonra	-9.5241
▁ont	-9.52474
▁prix	-9.52516
▁ju	-9.52591
▁tahun	-9.52592
▁دارد	-9.52597
位	-9.52601
▁long	-9.52696
ير	-9.52705
▁got	-9.52895
ク	-9.53073
من	-9.53078
เข	-9.53127
å	-9.53152
ث	-9.5322
▁meine	-9.53231
ами	-9.53246
요	-9.53322
▁heeft	-9.5333
▁со	-9.53535
▁وت	-9.53641
▁hier	-9.53642
ко	-9.53681
心	-9.5373
▁ൻ	-9.5377
▁việc	-9.5388
▁été	-9.53912
外	-9.53936
▁قبل	-9.53948
▁hun	-9.53989
つ	-9.54017
▁وقت	-9.54102
▁alles	-9.5412
▁کي	-9.54177
sı	-9.54257
▁آ	-9.54276
▁يا	-9.54345
感	-9.54378
ile	-9.54387
ö	-9.5444
λ	-9.54603
ный	-9.54706
ம	-9.54734
rea	-9.54826
▁ഞ	-9.5497
시	-9.54984
lık	-9.5514
ле	-9.55172
化	-9.55216
دي	-9.55306
でも	-9.5532
ın	-9.55362
▁घ	-9.55363
色	-9.55402
▁ز	-9.55448
ita	-9.55513
▁über	-9.5555
▁contra	-9.55639
ate	-9.55652
▁ok	-9.55681
gar	-9.55762
▁wikipédia	-9.5583
ía	-9.55964
▁ح	-9.5617
थ	-9.56192
时	-9.56288
▁ro	-9.56316
▁put	-9.56382
▁بين	-9.564
라	-9.56417
▁ج	-9.56435
ού	-9.56473
▁back	-9.56539
▁pan	-9.56558
하는	-9.56603
道	-9.56641
▁ولكن	-9.56678
▁tot	-9.56693
め	-9.56746
▁wat	-9.56817
▁จาก	-9.56866
▁เข	-9.56903
▁material	-9.56947
ş	-9.57027
▁vez	-9.57028
아	-9.57115
▁thomas	-9.57149
ber	-9.57231
bar	-9.57242
▁dar	-9.57261
▁kadar	-9.57276
▁لیے	-9.57285
يد	-9.57336
▁было	-9.57404
اف	-9.57407
▁بہت	-9.57474
▁under	-9.57568
去	-9.57629
ος	-9.57739
era	-9.57757
▁wy	-9.57782
▁trên	-9.57818
以	-9.57827
ć	-9.57856
▁general	-9.57896
ля	-9.57911
ക	-9.57958
▁used	-9.58151
▁मन	-9.58203
▁produkt	-9.5825
uri	-9.58297
يت	-9.58302
▁fe	-9.58313
ト	-9.58379
▁haben	-9.58411
▁pu	-9.5843
да	-9.58523
les	-9.58551
▁その	-9.58588
ol	-9.58693
▁мы	-9.58728
▁gibi	-9.58731
▁some	-9.58829
چ	-9.58835
▁ള	-9.58867
三	-9.58885
لي	-9.58896
▁made	-9.58932
ത	-9.58997
▁उनक	-9.59015
▁про	-9.59113
作	-9.59116
品	-9.59119
이다	-9.59122
ru	-9.59173
▁월	-9.5921
▁trakten	-9.59265
ไป	-9.5933
ные	-9.5937
sh	-9.594
اں	-9.59422
하여	-9.59449
เด	-9.59471
sk	-9.59609
わ	-9.59693
▁لیکن	-9.5985
ny	-9.59866
ง	-9.59987
sti	-9.59993
▁much	-9.59998
ύ	-9.60005
▁gar	-9.60006
▁मह	-9.60024
▁บร	-9.60024
▁bonne	-9.60114
▁هر	-9.60141
प	-9.60154
▁hu	-9.60205
▁ยวก	-9.60208
▁sana	-9.60251
▁faire	-9.60321
▁od	-9.60324
▁how	-9.60359
▁your	-9.60592
ble	-9.60685
وجہ	-9.60693
▁جا	-9.60834
dir	-9.60926
su	-9.60968
▁हर	-9.61012
▁because	-9.61026
▁வத	-9.61121
▁may	-9.61175
ах	-9.61223
tis	-9.61265
▁ή	-9.61313
▁ทํา	-9.61336
하	-9.61376
mba	-9.6153
一个	-9.61603
▁einfach	-9.6162
给	-9.61756
▁ํา	-9.61782
▁அம	-9.61918
ende	-9.6204
cz	-9.62048
fu	-9.62114
主	-9.62184
▁mein	-9.62212
▁கவ	-9.62291
ме	-9.62297
β	-9.62303
อน	-9.62308
▁donc	-9.6242
之	-9.6246
res	-9.62467
▁които	-9.62518
▁school	-9.6252
▁اپنے	-9.62552
αν	-9.62559
ns	-9.62593
их	-9.62646
▁м	-9.6268
だ	-9.62693
▁hơn	-9.62819
دا	-9.6285
از	-9.63014
iz	-9.63115
▁kwenye	-9.63122
گ	-9.63125
ux	-9.6325
ът	-9.63275
している	-9.63281
想	-9.63692
tă	-9.63815
▁रस	-9.63828
▁الس	-9.63926
دو	-9.63943
▁part	-9.63968
zu	-9.63978
▁two	-9.64084
▁werden	-9.64154
▁sp	-9.64187
art	-9.64213
대	-9.64243
하였다	-9.64245
her	-9.6426
ab	-9.64263
▁forma	-9.64272
▁auto	-9.64333
▁dis	-9.64356
▁دیا	-9.64517
ico	-9.6461
▁แล	-9.64724
▁france	-9.64793
യ	-9.64797
▁kamu	-9.6481
lor	-9.64824
▁test	-9.64838
▁even	-9.64878
▁கட	-9.64888
▁லத	-9.65107
æ	-9.65149
过	-9.65173
گی	-9.65193
장	-9.65241
与	-9.65261
▁کند	-9.65334
还是	-9.65507
ങ	-9.65558
ça	-9.65583
▁शन	-9.65636
▁ti	-9.65722
व	-9.65824
▁solo	-9.65879
口	-9.65891
▁كانت	-9.6606
▁maria	-9.66101
ina	-9.66204
▁พศ	-9.66211
市	-9.66279
เพ	-9.66304
했다	-9.6631
sz	-9.66487
ศ	-9.66506
يم	-9.6672
▁هل	-9.66726
▁อม	-9.66768
dem	-9.66773
▁นต	-9.66774
▁กว	-9.66838
▁usa	-9.66847
▁नत	-9.66898
▁कल	-9.6706
یر	-9.67068
▁대	-9.67096
تا	-9.67103
▁πολύ	-9.67135
▁तरह	-9.67208
▁दर	-9.67255
들	-9.67269
ati	-9.67368
▁deux	-9.67379
การ	-9.67418
▁бы	-9.6743
▁final	-9.67443
نی	-9.67527
อง	-9.67532
ft	-9.67536
▁são	-9.67608
▁ฐ	-9.67611
▁रम	-9.67654
ใช	-9.67687
▁ஆக	-9.67766
성	-9.67795
vis	-9.67862
▁கர	-9.67906
ae	-9.68062
▁قد	-9.68072
線	-9.68077
ard	-9.68091
▁هناك	-9.68091
sin	-9.68235
▁far	-9.68261
▁ten	-9.68292
ര	-9.68356
ts	-9.68405
▁năm	-9.68412
ド	-9.68513
▁لوگ	-9.68602
ei	-9.68718
▁runt	-9.68741
送	-9.68789
ده	-9.68874
▁dell	-9.68887
▁سی	-9.69042
q	-9.6906
zen	-9.69095
▁who	-9.69105
▁sul	-9.69164
▁톰	-9.69205
ία	-9.69389
▁life	-9.6954
▁ทธ	-9.69545
▁aux	-9.69552
▁لري	-9.69679
▁lakini	-9.69755
▁kui	-9.69768
金	-9.69779
▁เล	-9.69781
▁टर	-9.6979
没	-9.69956
▁تھے	-9.70011
▁iyi	-9.70041
▁ளத	-9.70066
ски	-9.70128
ستان	-9.70197
▁また	-9.70251
ido	-9.70282
▁homem	-9.7044
差	-9.70557
▁bi	-9.70564
за	-9.70588
▁کتاب	-9.70662
▁tre	-9.70665
▁apa	-9.70669
▁سب	-9.70677
▁เอ	-9.70684
ست	-9.70715
상	-9.70747
▁வட	-9.70809
sel	-9.70907
ния	-9.70955
▁она	-9.71003
▁vol	-9.71092
ata	-9.71096
ap	-9.71108
▁red	-9.71159
▁सक	-9.71234
▁chi	-9.71236
pt	-9.71247
gs	-9.71252
▁இத	-9.71301
▁nhiều	-9.71315
山	-9.71315
▁sein	-9.7136
▁เช	-9.71371
▁dire	-9.71447
▁الب	-9.71451
ções	-9.71462
▁être	-9.71615
μα	-9.71628
发	-9.71665
▁gra	-9.71742
▁andere	-9.7182
เช	-9.71918
orum	-9.72044
ый	-9.72066
정	-9.72226
▁tal	-9.72271
▁tarafından	-9.7232
▁cuando	-9.72338
del	-9.7239
ई	-9.72497
ier	-9.72525
▁puede	-9.72574
▁zum	-9.72593
ок	-9.72671
▁มาก	-9.72688
ट	-9.72706
▁immer	-9.72741
▁şey	-9.72828
ben	-9.72849
เหล	-9.72867
lt	-9.72882
▁यम	-9.7291
▁اگر	-9.73018
nud	-9.73056
▁ہی	-9.73108
音	-9.73168
原	-9.73176
定	-9.73324
ائی	-9.73361
▁ana	-9.73387
当	-9.73398
▁بات	-9.7344
ré	-9.73486
▁इ	-9.73504
▁alla	-9.73518
▁total	-9.73567
부	-9.73595
▁chính	-9.73642
▁ञ	-9.73747
وی	-9.73818
長	-9.73847
全	-9.73892
ρα	-9.73926
▁again	-9.73995
ア	-9.74031
▁đa	-9.74039
▁วน	-9.74146
▁ஸ	-9.74162
tte	-9.7427
▁tem	-9.74282
▁hon	-9.74291
▁original	-9.74306
ий	-9.74393
▁สามารถ	-9.74454
▁pot	-9.74467
▁års	-9.74487
des	-9.74491
▁ยว	-9.74559
dor	-9.74564
▁little	-9.74654
om	-9.74667
▁après	-9.74706
ker	-9.74736
▁still	-9.74807
▁ти	-9.74869
▁بل	-9.74955
▁چه	-9.74958
▁now	-9.74984
▁अच	-9.75005
mb	-9.75016
▁zaman	-9.75057
▁chỉ	-9.75089
重	-9.75104
ua	-9.75115
vit	-9.75128
▁sig	-9.75137
▁cái	-9.75139
▁nos	-9.75167
ais	-9.75188
tori	-9.75213
end	-9.75285
हत	-9.75297
ón	-9.75313
فر	-9.75331
▁set	-9.75355
ώ	-9.75406
hu	-9.75557
ris	-9.75577
ди	-9.75596
还	-9.75624
與	-9.75678
▁مجھے	-9.75683
▁nin	-9.75686
にも	-9.75747
qui	-9.75922
▁band	-9.76013
▁ങൾ	-9.76022
ん	-9.76058
ec	-9.762
加	-9.76264
▁جب	-9.76305
▁கம	-9.7631
fe	-9.76383
▁году	-9.76384
ian	-9.7641
▁juga	-9.76566
▁could	-9.76649
use	-9.76695
▁นด	-9.76707
▁rất	-9.76713
▁மக	-9.76764
▁دې	-9.76822
▁problem	-9.76982
▁kom	-9.76998
▁akan	-9.77005
▁α	-9.77026
▁månaden	-9.7706
▁کچھ	-9.77061
▁งท	-9.77144
면	-9.77156
ego	-9.77162
تر	-9.77162
ется	-9.77168
特	-9.7728
ana	-9.77311
いて	-9.77352
uz	-9.77357
▁john	-9.77395
▁foto	-9.77398
▁recommande	-9.77408
▁cur	-9.7748
▁kal	-9.77496
▁cor	-9.77547
▁color	-9.77627
▁الن	-9.77629
กล	-9.77643
▁case	-9.77673
可以	-9.77728
▁กษา	-9.77733
ше	-9.77735
▁cap	-9.77738
斯	-9.77754
▁thành	-9.77759
▁uomo	-9.77762
▁quality	-9.77762
立	-9.77794
dy	-9.77794
con	-9.77811
las	-9.7784
nte	-9.7787
ante	-9.77876
nis	-9.77917
▁เธอ	-9.77934
▁ga	-9.77948
▁مثل	-9.78019
mek	-9.78027
▁าว	-9.78086
光	-9.78107
เส	-9.7811
지만	-9.78134
ren	-9.78173
nce	-9.78182
cht	-9.78298
에게	-9.78311
▁bar	-9.78322
▁той	-9.78347
ग	-9.78409
▁خو	-9.78447
▁தன	-9.78455
یا	-9.78473
cher	-9.78505
意	-9.78538
▁которые	-9.78553
▁ธ	-9.78636
▁wird	-9.78673
tro	-9.78704
จาก	-9.78737
▁نظر	-9.78748
inde	-9.78761
ag	-9.78807
いた	-9.78933
▁กร	-9.78957
gli	-9.78988
明	-9.79009
▁uso	-9.79034
通	-9.79044
▁டம	-9.79107
nu	-9.79258
انو	-9.79274
▁sch	-9.79297
är	-9.79317
▁büyük	-9.79329
원	-9.79353
▁tak	-9.79409
▁tan	-9.79425
把	-9.79525
▁zaidi	-9.79541
yı	-9.79555
را	-9.79564
▁gli	-9.7958
▁qualität	-9.79643
▁waar	-9.79668
▁nous	-9.79768
▁quan	-9.79813
▁بعض	-9.79848
▁लगत	-9.79902
kt	-9.79904
▁zo	-9.79914
▁ada	-9.79955
ните	-9.79967
▁bra	-9.80059
nen	-9.80232
▁تھی	-9.80246
よ	-9.80288
という	-9.80318
▁pela	-9.80365
ement	-9.80367
最	-9.8041
こ	-9.80477
▁مت	-9.80487
ําล	-9.80492
於	-9.80511
му	-9.80518
より	-9.80533
که	-9.80557
▁الع	-9.80573
▁lại	-9.806
▁उद	-9.80604
▁पहल	-9.80621
by	-9.80698
در	-9.80766
lin	-9.80827
val	-9.80842
▁во	-9.80966
▁dann	-9.80966
▁κ	-9.81003
▁کسی	-9.8111
▁sans	-9.8112
▁나는	-9.81181
先	-9.81314
▁समय	-9.81351
▁oh	-9.81458
▁sami	-9.81469
▁pen	-9.81577
▁nice	-9.81582
平	-9.81635
▁طرف	-9.81643
▁الح	-9.81662
首	-9.81679
تي	-9.81707
▁طرح	-9.81743
購入	-9.81816
야	-9.81817
دې	-9.81917
یه	-9.81964
chi	-9.82031
▁رہا	-9.82056
▁सह	-9.82217
▁oder	-9.82322
▁way	-9.82329
▁genomsnitt	-9.82418
▁york	-9.82425
▁article	-9.82426
いい	-9.82444
う	-9.8248
سی	-9.82715
▁fin	-9.82739
▁post	-9.82959
▁boston	-9.82978
▁หล	-9.83034
▁mor	-9.83039
▁hem	-9.83042
ami	-9.83131
▁thấy	-9.83155
ır	-9.83167
不错	-9.83199
▁گا	-9.83241
海	-9.83438
▁خپل	-9.83475
ú	-9.83508
同	-9.83526
▁high	-9.83528
▁لپاره	-9.83582
تی	-9.83691
格	-9.83726
▁นน	-9.83761
مر	-9.83792
히	-9.83897
▁size	-9.83906
▁سي	-9.84072
▁nel	-9.84098
tter	-9.84103
▁были	-9.84113
更	-9.84254
打	-9.84261
ide	-9.84283
个	-9.84291
コ	-9.84361
目	-9.84425
жа	-9.84453
▁disse	-9.84453
▁bis	-9.84488
▁nederbörd	-9.84538
▁water	-9.84543
言	-9.84589
▁base	-9.84591
▁deze	-9.84594
▁schnell	-9.84645
気	-9.84652
▁oleh	-9.84672
▁due	-9.84734
だけ	-9.84746
ah	-9.84797
▁ela	-9.84849
ната	-9.84863
え	-9.84917
τα	-9.84926
ura	-9.84953
▁يمكن	-9.84967
▁video	-9.84969
▁hand	-9.85064
▁لقد	-9.85077
▁등	-9.85118
tel	-9.85184
▁us	-9.85196
マ	-9.85221
kar	-9.85225
自己	-9.8531
开	-9.85383
ph	-9.85393
pen	-9.85414
▁мне	-9.85416
會	-9.85422
▁över	-9.85439
ari	-9.85503
tt	-9.85558
▁algo	-9.85564
▁twee	-9.85588
mar	-9.85648
しました	-9.85659
▁temps	-9.85668
▁э	-9.85685
च	-9.85689
▁durant	-9.85731
台	-9.85767
吧	-9.85776
▁mereka	-9.85786
▁षण	-9.85802
▁pelo	-9.85811
▁hace	-9.8582
▁شامل	-9.85831
ø	-9.85907
larını	-9.85914
▁waren	-9.85958
ड	-9.8624
คร	-9.86274
اع	-9.8636
iv	-9.86388
▁small	-9.86393
▁mil	-9.86524
gra	-9.86537
сти	-9.86674
▁اي	-9.86699
mer	-9.86736
起	-9.86772
期	-9.86804
▁fall	-9.86804
量	-9.86824
▁grand	-9.86876
味	-9.86906
▁இல	-9.86922
▁月日	-9.86932
▁अभ	-9.86948
ların	-9.87127
че	-9.87133
▁पन	-9.87165
ру	-9.87172
ری	-9.87192
ые	-9.87196
まで	-9.87247
▁hiyo	-9.8731
▁kutoka	-9.87315
▁유	-9.87391
وم	-9.87395
han	-9.87427
일	-9.87527
au	-9.87564
▁你	-9.87661
▁gia	-9.8767
▁nhất	-9.87693
▁vì	-9.87699
ite	-9.87725
rat	-9.87742
▁ganz	-9.87808
unque	-9.87901
ал	-9.87948
ll	-9.87956
▁anti	-9.88019
▁state	-9.88142
がある	-9.88347
▁think	-9.88438
rá	-9.88458
▁thực	-9.88469
▁wirklich	-9.88469
▁würde	-9.8847
▁esse	-9.88514
▁schön	-9.88554
▁คร	-9.88581
▁انا	-9.88701
▁محمد	-9.88725
نې	-9.88785
ș	-9.88799
▁khác	-9.88828
▁سامي	-9.8887
dı	-9.88944
nes	-9.88955
▁τομ	-9.88965
าน	-9.8899
▁web	-9.88994
ê	-9.89071
▁want	-9.89122
买的	-9.89129
于	-9.89275
▁their	-9.89334
ха	-9.89335
▁மன	-9.89381
ley	-9.89435
ф	-9.89521
gel	-9.89526
▁sc	-9.89536
nder	-9.89621
▁فقط	-9.89653
▁muito	-9.89672
rie	-9.89687
▁ک	-9.8975
ait	-9.8977
▁kar	-9.89785
ef	-9.89839
يو	-9.89852
ют	-9.89856
▁parece	-9.89868
car	-9.89894
▁ص	-9.89919
▁เห	-9.89933
▁pod	-9.89975
▁ses	-9.89977
▁thế	-9.90049
وب	-9.90062
▁eller	-9.90101
▁kon	-9.90152
▁ook	-9.90179
▁või	-9.90189
▁யல	-9.90192
द	-9.90209
де	-9.9021
ida	-9.90301
▁주	-9.9031
做	-9.90326
▁quando	-9.90335
のですが	-9.90341
而	-9.9035
▁bit	-9.90416
▁அல	-9.90438
▁има	-9.90438
▁نمی	-9.90462
دار	-9.90478
ot	-9.90506
▁ligge	-9.9053
▁年月日	-9.9053
▁works	-9.9059
ல	-9.90633
▁چي	-9.90673
▁ยม	-9.90774
▁есть	-9.90857
▁п	-9.90858
▁gran	-9.90931
▁ศ	-9.90964
tik	-9.90995
يس	-9.91092
▁bị	-9.91236
▁wakati	-9.91243
▁غير	-9.91261
キ	-9.91338
四	-9.9138
ια	-9.91408
▁वल	-9.91413
ło	-9.91425
ani	-9.91442
▁end	-9.91589
长	-9.91622
▁sebagai	-9.91664
▁लन	-9.91665
▁बड	-9.91681
lerin	-9.91713
▁worden	-9.91714
▁sal	-9.91728
▁look	-9.91739
され	-9.91741
▁ré	-9.91752
าร	-9.91761
▁tv	-9.91767
▁fo	-9.919
▁गत	-9.91968
กว	-9.91996
نو	-9.92011
tum	-9.92019
▁air	-9.92021
▁sol	-9.92028
▁does	-9.92034
▁งส	-9.92057
▁desde	-9.92063
▁ph	-9.92071
▁กล	-9.92102
lerini	-9.92158
▁نا	-9.92177
یې	-9.92215
▁best	-9.92219
代	-9.92241
▁menos	-9.92241
▁face	-9.92254
▁oma	-9.92291
▁которы	-9.92408
▁لي	-9.92446
▁tiempo	-9.92446
▁bởi	-9.92446
▁الله	-9.92457
수	-9.92457
ps	-9.92491
▁اند	-9.92518
▁uno	-9.92586
ska	-9.92598
▁னர	-9.92665
正	-9.92674
▁была	-9.92677
▁onder	-9.92694
ande	-9.92733
买	-9.92758
▁حاصل	-9.92763
公	-9.92822
ano	-9.92886
再	-9.92912
▁यद	-9.92913
日本	-9.92965
▁خان	-9.93019
▁може	-9.93024
タ	-9.93063
西	-9.93077
▁บน	-9.93119
▁maar	-9.93128
ité	-9.93134
及	-9.93158
電	-9.9317
▁make	-9.93187
▁தத	-9.93223
▁familia	-9.93261
直	-9.93272
▁đề	-9.93309
▁ella	-9.93342
cho	-9.93345
▁day	-9.93413
ep	-9.93462
port	-9.93499
▁haar	-9.93507
▁nature	-9.93525
▁가	-9.93621
比	-9.93639
なら	-9.93651
ity	-9.93657
▁время	-9.9367
▁bastante	-9.93672
gue	-9.93674
▁hoặc	-9.93674
▁지	-9.93684
不是	-9.93719
نس	-9.93761
很好	-9.9379
と思います	-9.93835
▁yer	-9.93852
ッ	-9.93906
کو	-9.93921
▁시	-9.93943
▁बर	-9.93975
سي	-9.94017
ili	-9.94096
▁不	-9.94156
▁orang	-9.94166
▁توان	-9.94185
▁sk	-9.94194
▁му	-9.94282
▁دیگر	-9.94378
던	-9.94379
▁στη	-9.94484
▁nào	-9.94495
▁ru	-9.94581
▁وفي	-9.94605
▁wurde	-9.9463
bra	-9.94762
หล	-9.94767
▁غ	-9.9477
ําให	-9.94813
ного	-9.94847
دی	-9.94877
ฝ	-9.95019
▁hab	-9.95022
▁と	-9.95072
sten	-9.95148
min	-9.95165
▁하	-9.95167
lus	-9.95258
▁งน	-9.95269
放	-9.95274
▁д	-9.95291
치	-9.95315
▁vraiment	-9.95331
دل	-9.95333
っ	-9.95337
▁funciona	-9.95343
▁đầu	-9.95359
ма	-9.95402
한다	-9.95427
할	-9.95449
▁premier	-9.95489
ô	-9.95512
▁جانب	-9.95529
▁مر	-9.95596
ظ	-9.95665
tud	-9.95681
ци	-9.95701
식	-9.95742
比较	-9.95752
▁ایران	-9.95756
▁قرار	-9.95774
▁its	-9.95783
星	-9.95803
주	-9.95866
▁อก	-9.9588
▁tin	-9.95909
▁الف	-9.95918
مان	-9.95949
れ	-9.95999
ره	-9.96016
ub	-9.96018
德	-9.96046
機	-9.96048
ής	-9.96102
▁funktioniert	-9.96166
▁же	-9.96177
▁کيږي	-9.96185
▁най	-9.96203
▁muss	-9.96224
my	-9.9623
var	-9.96304
chen	-9.9634
▁وقد	-9.96367
▁most	-9.96368
▁นส	-9.96383
▁hasta	-9.964
wo	-9.96506
mm	-9.96526
▁yo	-9.9658
▁사	-9.96604
快	-9.96696
лько	-9.96708
کر	-9.96731
avoir	-9.96747
▁பக	-9.96791
▁لو	-9.96795
▁شخص	-9.96831
ил	-9.96834
likuwa	-9.96904
▁bas	-9.96919
idad	-9.96921
こと	-9.96922
zione	-9.96925
▁olduğunu	-9.97017
άν	-9.97056
▁moja	-9.97127
場	-9.97172
亚马逊	-9.97336
کی	-9.97386
▁tam	-9.974
两	-9.974
ړ	-9.97415
▁jetzt	-9.97437
▁easy	-9.97439
▁any	-9.97489
ega	-9.97584
▁meter	-9.97596
▁said	-9.97678
▁วง	-9.9772
مو	-9.9775
ând	-9.97845
▁पस	-9.97865
▁부	-9.97865
▁بی	-9.97867
▁σας	-9.97868
▁lý	-9.97881
▁price	-9.97882
▁کوئی	-9.97901
만	-9.98008
▁fonctionne	-9.98025
▁انت	-9.98053
▁light	-9.98114
▁تاریخ	-9.9813
▁μ	-9.98172
▁doesn	-9.98202
▁heb	-9.98226
▁கத	-9.98237
▁vrouw	-9.98254
▁وأ	-9.98256
▁petit	-9.98271
▁bought	-9.98294
ados	-9.983
lah	-9.98301
▁ډول	-9.98312
▁موجود	-9.98319
▁china	-9.98398
أ	-9.98453
▁யத	-9.98476
ин	-9.98478
▁voi	-9.9849
▁jo	-9.98564
된	-9.98672
رے	-9.98789
才	-9.98791
لی	-9.98796
▁vil	-9.99014
ち	-9.99056
▁bal	-9.99201
बस	-9.99231
▁ஜ	-9.99274
bel	-9.99314
unt	-9.99382
▁geen	-9.99457
▁มา	-9.99489
▁اب	-9.9949
▁كما	-9.995
▁todos	-9.99502
レ	-9.99507
nden	-9.99509
cie	-9.99546
任	-9.99563
▁오	-9.99565
ism	-9.99634
کہ	-9.99675
▁جن	-9.99702
▁یو	-9.99714
書	-9.99736
▁عدد	-9.99743
月	-9.99753
ika	-9.9982
▁vya	-9.99846
▁ş	-9.99899
利	-9.99951
▁ces	-10.0002
ит	-10.0005
▁into	-10.0015
▁hari	-10.0017
ши	-10.002
▁así	-10.0021
ている	-10.003
▁τι	-10.003
だった	-10.0031
せ	-10.0039
▁hatte	-10.0039
美	-10.0044
▁الق	-10.0045
▁แม	-10.0045
رس	-10.0048
▁меня	-10.0048
ette	-10.0049
▁open	-10.0049
▁просто	-10.0049
▁einer	-10.0056
▁பல	-10.0062
▁தர	-10.0066
ため	-10.0066
او	-10.0068
▁الش	-10.0072
ός	-10.0073
▁προ	-10.0076
เท	-10.0079
▁mulher	-10.0079
装	-10.0088
▁беше	-10.0091
▁giờ	-10.0091
▁finns	-10.0092
有点	-10.0094
gt	-10.0096
ан	-10.0106
フ	-10.0112
▁யர	-10.0116
▁έχει	-10.013
وت	-10.0132
▁nord	-10.0133
▁ning	-10.0137
ются	-10.0137
▁bisa	-10.0148
▁play	-10.0156
بل	-10.0163
▁گئی	-10.0167
▁pra	-10.0169
▁پیش	-10.017
▁रद	-10.017
又	-10.0174
ξ	-10.0178
▁трябва	-10.0179
▁tại	-10.0179
▁sadece	-10.0179
он	-10.0185
rit	-10.0186
▁така	-10.019
▁tag	-10.0207
▁buen	-10.0207
ธ	-10.0213
▁box	-10.0214
ros	-10.0215
يب	-10.0217
жи	-10.0219
▁sha	-10.0222
片	-10.0223
▁رہے	-10.0224
▁wiki	-10.0224
▁macht	-10.0225
▁这	-10.0231
▁media	-10.0231
out	-10.0235
▁lu	-10.0236
▁لی	-10.0237
▁donna	-10.0243
▁เส	-10.0252
自	-10.0258
asi	-10.0259
전	-10.0261
▁ông	-10.0264
個	-10.0266
語	-10.0266
드	-10.0268
انی	-10.0269
▁cũ	-10.0271
ona	-10.0272
▁نیز	-10.0273
▁yeni	-10.0274
bil	-10.0275
โดย	-10.0285
相	-10.029
pu	-10.0295
pro	-10.0298
▁σ	-10.0301
▁vậy	-10.0314
▁sieht	-10.0316
使	-10.0322
▁ور	-10.0325
▁سن	-10.0331
▁جدا	-10.0332
ff	-10.0336
▁حال	-10.0341
са	-10.0342
ją	-10.0344
▁durch	-10.0344
گر	-10.0346
け	-10.0353
▁q	-10.0355
▁نہ	-10.0357
▁livraison	-10.0359
▁ങള	-10.036
▁عندما	-10.036
tig	-10.0366
ная	-10.0367
▁през	-10.0369
▁tres	-10.037
カ	-10.0381
▁一	-10.0382
▁मत	-10.0393
tra	-10.0398
王	-10.0405
▁también	-10.0405
▁مرکز	-10.0405
▁lot	-10.0406
им	-10.0412
▁då	-10.0419
▁وجود	-10.042
▁டன	-10.0423
十	-10.0424
良い	-10.0424
کا	-10.0425
二	-10.0427
▁而	-10.043
のは	-10.0434
vu	-10.0444
во	-10.0449
▁بڑ	-10.045
▁dommage	-10.045
▁ரம	-10.0451
▁hi	-10.0452
ù	-10.0469
▁quam	-10.047
rt	-10.0471
▁tro	-10.0471
▁فر	-10.0472
سا	-10.0473
▁değil	-10.0476
fer	-10.0489
▁naam	-10.0491
به	-10.0491
▁นก	-10.0493
▁ilk	-10.0494
▁più	-10.0497
tive	-10.05
▁ме	-10.0503
▁fois	-10.0506
ino	-10.0507
yi	-10.0508
就是	-10.051
動	-10.0515
▁res	-10.0517
▁oldu	-10.0518
ras	-10.0519
dır	-10.052
▁lieferung	-10.0521
dra	-10.0522
نه	-10.0538
取	-10.0539
指	-10.054
▁rien	-10.054
▁ہوا	-10.0542
▁também	-10.0542
▁кое	-10.0542
知	-10.0543
▁பர	-10.0544
▁hàng	-10.0544
ría	-10.0553
▁vers	-10.0557
字	-10.0559
▁schade	-10.056
▁học	-10.0564
▁انه	-10.0564
▁இவர	-10.0573
▁tur	-10.0579
bat	-10.058
▁중	-10.0582
ым	-10.0588
周	-10.0589
▁rapport	-10.0589
▁سکتا	-10.0589
one	-10.0598
ず	-10.0599
let	-10.0601
ځ	-10.0603
▁pratique	-10.0605
ам	-10.0614
▁정	-10.0618
lü	-10.0618
▁cách	-10.0619
▁juli	-10.0619
など	-10.0621
nik	-10.0629
▁전	-10.0629
▁hiện	-10.0635
▁मस	-10.0642
οί	-10.0646
ای	-10.0654
▁col	-10.0666
له	-10.0673
▁gute	-10.0675
▁자	-10.0675
▁buy	-10.0676
▁main	-10.0676
ое	-10.0678
▁real	-10.0679
▁مخ	-10.0681
лся	-10.0684
ところ	-10.0685
▁अस	-10.0687
▁kein	-10.0687
▁él	-10.0689
▁plu	-10.0689
ür	-10.069
▁bag	-10.0701
ale	-10.0702
かな	-10.0706
教	-10.0707
大学	-10.0709
▁δ	-10.0715
kel	-10.0718
▁kes	-10.0719
aba	-10.0719
▁sac	-10.0721
▁pode	-10.0722
▁veya	-10.0726
▁design	-10.0734
号	-10.0734
ор	-10.074
ؤ	-10.074
că	-10.0741
▁مو	-10.0742
▁spa	-10.0746
なかった	-10.0748
ща	-10.0754
这个	-10.0759
▁år	-10.076
▁استعمال	-10.0761
▁съм	-10.0762
ね	-10.0763
商品	-10.0768
身	-10.0769
▁här	-10.077
▁الر	-10.0771
▁제	-10.0771
▁내	-10.0773
르	-10.0774
无	-10.0775
チ	-10.0775
▁เน	-10.0776
▁ضرورت	-10.0776
表示	-10.0776
▁ദ	-10.0778
▁ap	-10.0781
ban	-10.0783
理	-10.0786
했	-10.0792
اخ	-10.0798
▁مس	-10.0805
lama	-10.0805
吗	-10.0821
van	-10.083
▁ผม	-10.0834
▁حيث	-10.0837
ord	-10.0841
ör	-10.0845
▁б	-10.0859
▁پس	-10.086
▁cre	-10.0862
▁خلال	-10.0863
line	-10.0864
ok	-10.0864
einem	-10.0867
ğ	-10.0869
▁comp	-10.0871
hr	-10.0871
▁nhân	-10.0872
▁ol	-10.0874
ии	-10.0875
▁data	-10.0878
▁saint	-10.0879
▁onu	-10.0881
▁وروست	-10.0881
▁need	-10.0891
▁app	-10.0893
wan	-10.0897
اک	-10.0897
ロ	-10.0903
sid	-10.0904
安	-10.0905
ല	-10.0912
ความ	-10.0912
▁അവ	-10.0919
克	-10.0919
▁internet	-10.092
▁prze	-10.0925
mise	-10.0933
isi	-10.0936
▁비	-10.0943
▁ار	-10.0953
ση	-10.0956
▁num	-10.0957
▁never	-10.0957
建	-10.0957
▁ทอม	-10.0958
เห	-10.0959
▁след	-10.0965
ム	-10.0966
拉	-10.0967
▁beaucoup	-10.0967
▁prima	-10.0973
▁aastal	-10.0974
ney	-10.0975
感じ	-10.0975
лен	-10.0978
اح	-10.0978
▁kind	-10.0987
▁recht	-10.0991
▁cela	-10.0993
▁अम	-10.0999
ฉ	-10.0999
हर	-10.1003
ali	-10.1003
▁پی	-10.1005
信	-10.1007
型	-10.1009
▁پور	-10.1009
ジ	-10.1013
▁тя	-10.1013
니	-10.1014
▁ഒര	-10.1015
▁حتى	-10.1015
▁زبان	-10.1016
▁علاق	-10.1016
ista	-10.1021
ige	-10.1034
▁кой	-10.1035
▁пре	-10.1037
▁有	-10.104
peut	-10.104
ナ	-10.1043
ç	-10.1046
▁بنا	-10.1046
ء	-10.1047
その	-10.105
rse	-10.105
▁دور	-10.1051
▁model	-10.1054
ring	-10.1064
▁assez	-10.1064
εί	-10.1065
▁conforme	-10.1065
▁paul	-10.1068
问题	-10.1069
ګ	-10.1083
▁டப	-10.1084
你	-10.1087
▁जर	-10.1091
ミ	-10.1092
▁چ	-10.1094
ους	-10.1098
▁principal	-10.11
mal	-10.1108
▁queda	-10.1108
北	-10.111
反	-10.111
▁đây	-10.1113
▁आय	-10.1113
▁کرمانشاه	-10.1113
▁land	-10.1114
▁where	-10.1114
じ	-10.1116
▁phone	-10.1117
cer	-10.1123
حت	-10.1126
▁sido	-10.1126
പ	-10.1126
▁aussi	-10.113
شت	-10.1138
▁vis	-10.1145
南	-10.1146
▁عمل	-10.1149
初	-10.1157
▁ഷ	-10.1157
ede	-10.1163
mento	-10.1163
▁دست	-10.1164
▁ia	-10.1164
▁аз	-10.1166
▁power	-10.1167
▁sent	-10.1171
▁mari	-10.1182
▁их	-10.1183
▁kam	-10.1183
▁دوران	-10.1184
▁atau	-10.1186
▁kat	-10.1189
シ	-10.1209
▁ils	-10.1209
▁wo	-10.121
▁ریاست	-10.1211
ère	-10.1212
▁نور	-10.1214
idade	-10.1215
▁kwamba	-10.1218
buah	-10.122
▁มพ	-10.1221
mel	-10.1223
▁normal	-10.1223
▁един	-10.1225
ться	-10.1228
▁going	-10.1234
▁rep	-10.1238
ائل	-10.1245
pl	-10.1247
将	-10.1248
▁ни	-10.1248
си	-10.1249
▁fra	-10.125
εται	-10.1252
这	-10.1256
▁livre	-10.1258
▁hal	-10.1258
▁menjadi	-10.126
駅	-10.126
▁بشكل	-10.1261
und	-10.1262
▁yılında	-10.1266
ъ	-10.1273
▁ste	-10.1277
ast	-10.128
▁world	-10.128
▁अर	-10.1285
af	-10.1289
با	-10.1291
▁bad	-10.1293
yle	-10.1302
▁ale	-10.1306
▁dois	-10.1308
▁quand	-10.1315
▁saat	-10.1317
▁π	-10.1321
เจ	-10.1322
▁بي	-10.1329
▁بین	-10.1332
urs	-10.1335
▁roma	-10.1336
ούν	-10.1337
▁olduğu	-10.1339
▁مجموع	-10.134
iga	-10.1344
▁기	-10.1346
ทาง	-10.1348
endo	-10.1353
各	-10.136
▁کوشش	-10.136
แต	-10.1363
▁또	-10.1363
▁пере	-10.1368
▁antes	-10.1369
▁गर	-10.1374
ば	-10.1375
▁side	-10.1375
iste	-10.1379
تها	-10.138
uje	-10.138
します	-10.1384
ui	-10.1386
白	-10.1388
▁चल	-10.1389
▁seem	-10.139
間	-10.139
په	-10.1391
يات	-10.1394
ium	-10.1401
eren	-10.1404
那	-10.1406
▁私は	-10.1406
从	-10.1407
來	-10.1408
▁mejor	-10.1408
州	-10.141
▁세	-10.141
แล	-10.1412
由	-10.1412
па	-10.1414
▁động	-10.1415
▁وی	-10.1415
net	-10.1424
ciones	-10.1427
быть	-10.1428
▁있어	-10.1431
▁him	-10.1433
ρο	-10.1436
زي	-10.1439
وار	-10.1442
بة	-10.1442
▁fast	-10.1446
▁detto	-10.1451
▁az	-10.1453
ß	-10.1458
명	-10.1459
▁januari	-10.1461
▁ஆம	-10.1461
▁utilisation	-10.1461
▁而且	-10.1461
▁efter	-10.1461
▁direct	-10.1461
▁form	-10.1465
شی	-10.1466
▁alikuwa	-10.1472
ښ	-10.1473
可	-10.1478
▁ch	-10.1481
▁moment	-10.1483
▁ban	-10.1483
▁dag	-10.1485
▁art	-10.1492
集	-10.1493
あ	-10.1497
▁giá	-10.1498
▁彼は	-10.1504
ня	-10.1504
▁yake	-10.1505
▁cet	-10.1508
▁kobieta	-10.1512
▁அற	-10.1512
▁bestellt	-10.1512
▁ξέρεις	-10.1512
▁شکل	-10.1512
ブ	-10.1514
ero	-10.1515
▁selle	-10.1515
▁ii	-10.1516
έρ	-10.1518
lla	-10.152
ś	-10.1521
▁того	-10.1523
▁point	-10.1536
▁ger	-10.1537
半	-10.1542
▁بچ	-10.1543
▁kita	-10.1549
▁won	-10.1557
ving	-10.1557
▁خبر	-10.1558
ive	-10.1559
▁وو	-10.1559
动	-10.1561
▁யம	-10.1562
ün	-10.1562
▁องการ	-10.1562
▁αυτή	-10.1563
▁kucing	-10.1563
▁زندگی	-10.1563
▁right	-10.1563
▁sto	-10.1564
▁fazla	-10.1565
▁تمام	-10.157
▁नक	-10.1573
up	-10.1574
arna	-10.1576
▁ตร	-10.158
하지	-10.158
▁public	-10.1583
ット	-10.1585
▁им	-10.1588
▁اسے	-10.1596
▁안	-10.1601
称	-10.1611
▁wao	-10.1612
▁باشد	-10.1615
▁while	-10.1616
وف	-10.1618
▁ако	-10.1618
ντ	-10.1619
▁autre	-10.1621
ente	-10.1622
▁าท	-10.1624
▁facile	-10.1625
▁خورشید	-10.1626
▁then	-10.163
▁roman	-10.1633
idae	-10.1639
vel	-10.1649
ρι	-10.1653
▁واحد	-10.1654
ise	-10.1655
ове	-10.1658
けど	-10.1665
▁سازمان	-10.1668
不能	-10.1669
▁vid	-10.1669
▁потом	-10.1671
▁quelque	-10.1671
内容	-10.1672
▁पह	-10.1673
▁faut	-10.168
▁familie	-10.1682
▁இவ	-10.1682
出来	-10.1686
▁mem	-10.1688
▁vin	-10.169
آ	-10.1693
ip	-10.1696
▁해	-10.1699
▁tengo	-10.17
tı	-10.1701
▁само	-10.1701
▁وم	-10.1704
▁نعم	-10.1705
される	-10.1714
世界	-10.1715
▁लय	-10.1715
▁सन	-10.1717
πρέπει	-10.1717
▁书	-10.1718
tal	-10.1719
▁klein	-10.1721
▁american	-10.1728
ழ	-10.1732
▁down	-10.1739
▁came	-10.174
ел	-10.1743
하게	-10.1743
lis	-10.1745
していた	-10.1745
по	-10.1745
向	-10.1747
▁tras	-10.1748
▁tek	-10.1749
▁kus	-10.1752
▁sam	-10.1754
▁สร	-10.1758
▁problema	-10.176
▁nun	-10.1769
▁очень	-10.1769
▁حکومت	-10.1769
▁viên	-10.177
yo	-10.1771
صر	-10.178
▁وخت	-10.1784
▁보	-10.1785
▁extra	-10.1786
osa	-10.1791
▁yıl	-10.1793
ить	-10.1805
▁nombre	-10.181
മ	-10.1814
▁அட	-10.1822
ほど	-10.1822
▁however	-10.1822
met	-10.1823
▁cuộc	-10.1823
ies	-10.1823
▁де	-10.1826
جر	-10.1826
mine	-10.1837
▁onun	-10.1839
cas	-10.1841
tin	-10.1844
▁نظام	-10.1846
▁isso	-10.1853
▁모	-10.1861
ίν	-10.1864
าด	-10.1864
for	-10.1866
非常	-10.1868
رة	-10.1869
包	-10.1874
▁från	-10.1874
▁zurück	-10.1875
zy	-10.1877
▁hard	-10.1878
▁ฟ	-10.1892
går	-10.1892
▁program	-10.1894
▁यर	-10.1895
▁compra	-10.1895
ской	-10.1896
▁minu	-10.1897
ڑ	-10.19
▁book	-10.1904
▁fuit	-10.1905
▁same	-10.1908
▁ras	-10.1908
▁imp	-10.1911
▁zeit	-10.1918
rs	-10.1919
▁nog	-10.192
版	-10.192
軍	-10.192
▁한	-10.1925
▁เท	-10.1927
▁acheté	-10.1927
已经	-10.1927
▁take	-10.1929
▁کى	-10.1932
▁team	-10.1933
▁upp	-10.1935
▁घर	-10.1942
▁cas	-10.1943
당	-10.1944
στ	-10.195
▁rela	-10.1954
制	-10.1954
ئی	-10.1959
انه	-10.196
▁old	-10.1961
ham	-10.1964
▁나	-10.1968
机	-10.1974
▁کہا	-10.1974
کار	-10.1975
話	-10.198
▁ரத	-10.1988
▁बच	-10.1991
ると	-10.1992
stra	-10.1994
화	-10.2001
▁mus	-10.2002
▁ทาง	-10.2005
دان	-10.2007
▁लग	-10.2008
▁வக	-10.2009
▁него	-10.2012
▁esto	-10.2018
▁டர	-10.2019
shi	-10.2023
▁اپن	-10.2023
▁โอ	-10.2027
군	-10.203
▁toda	-10.2031
▁是	-10.2033
illa	-10.2033
▁более	-10.2034
▁자신	-10.2034
▁sé	-10.2035
▁money	-10.2035
▁juu	-10.2036
▁นไม	-10.2037
▁funda	-10.2044
時間	-10.2049
eg	-10.2052
▁allerdin	-10.2052
▁marca	-10.2054
▁machine	-10.2054
▁الان	-10.2054
ـ	-10.2057
▁amba	-10.2057
ous	-10.2063
▁alor	-10.2076
มา	-10.208
球	-10.2085
▁sai	-10.2087
▁önce	-10.2087
▁gekauft	-10.2088
▁before	-10.2088
▁hvor	-10.2088
όταν	-10.2091
▁kau	-10.2095
くらい	-10.2097
▁خط	-10.2102
▁کوي	-10.2103
▁ښ	-10.2107
진	-10.2109
ват	-10.2114
▁她	-10.2117
행	-10.2122
▁câ	-10.2126
▁iki	-10.2128
ным	-10.2129
▁tour	-10.2132
▁हत	-10.2138
▁ست	-10.2138
路	-10.2139
▁무	-10.2141
▁свое	-10.2143
har	-10.2148
gún	-10.2153
▁ili	-10.2154
ara	-10.2156
ар	-10.2158
▁إن	-10.216
▁ναι	-10.2167
工	-10.2174
▁satu	-10.2176
▁bao	-10.2178
▁ans	-10.2181
▁such	-10.2181
▁hii	-10.2183
▁کشور	-10.219
▁muốn	-10.2196
▁شيء	-10.2197
▁성	-10.2197
▁کرتے	-10.2198
▁லம	-10.2206
▁رو	-10.2206
▁lin	-10.221
หร	-10.2212
▁வழ	-10.2222
เต	-10.2226
▁mundo	-10.2227
tio	-10.2227
▁rock	-10.2229
동	-10.2229
telah	-10.2234
▁phí	-10.2235
ac	-10.2242
ζ	-10.2242
bb	-10.2242
エ	-10.2247
ges	-10.2249
▁google	-10.2251
▁صورت	-10.2251
▁exact	-10.2251
▁empfehlen	-10.2252
▁ومن	-10.2252
▁voir	-10.2254
▁mala	-10.2257
▁zei	-10.2261
par	-10.2264
mas	-10.2268
ہوں	-10.2272
▁ко	-10.2272
▁meer	-10.2274
pp	-10.2279
소	-10.2283
οι	-10.2285
ഴ	-10.2285
▁bahasa	-10.2289
写	-10.2292
▁เจ	-10.2293
▁مختلف	-10.2295
ос	-10.2296
าย	-10.2297
▁iran	-10.2298
足	-10.2299
▁lange	-10.23
▁lei	-10.2302
▁توم	-10.2302
女	-10.2303
基	-10.2303
▁आव	-10.2306
▁thích	-10.2306
▁obama	-10.2306
▁ہوتا	-10.2309
▁يكون	-10.2309
ません	-10.2312
aria	-10.2315
ân	-10.2316
▁wordt	-10.232
și	-10.232
▁hacer	-10.2323
▁وهو	-10.2331
▁many	-10.2331
iti	-10.2333
▁tegen	-10.2333
ique	-10.2337
▁comprar	-10.2339
▁کام	-10.2339
▁después	-10.2361
▁hợp	-10.2361
ius	-10.2365
ată	-10.2367
▁mois	-10.2368
вер	-10.2368
東	-10.2374
στον	-10.2374
▁quae	-10.2379
もの	-10.2382
ц	-10.2386
▁நட	-10.2388
▁यत	-10.2389
▁big	-10.2393
een	-10.2394
▁ശ	-10.2394
▁charge	-10.2397
▁रव	-10.2398
mis	-10.2404
vol	-10.2408
iert	-10.2413
接	-10.2414
▁ll	-10.2415
مي	-10.2416
▁றன	-10.2416
風	-10.2416
▁lớn	-10.2416
▁sem	-10.2417
▁سطح	-10.2421
ché	-10.2421
ба	-10.2425
isse	-10.2426
▁신	-10.2427
▁लत	-10.2439
▁वन	-10.244
nti	-10.2441
演	-10.2442
ligt	-10.2446
جل	-10.2446
▁estaba	-10.2447
▁तव	-10.245
中国	-10.2452
▁version	-10.2453
▁cover	-10.2457
▁international	-10.246
лись	-10.2462
▁الك	-10.2463
▁pal	-10.2465
aji	-10.2468
式	-10.247
▁kur	-10.247
▁cal	-10.247
店	-10.2471
▁nhận	-10.2472
▁around	-10.2472
nı	-10.2473
▁πιο	-10.2473
▁كنت	-10.2474
tant	-10.2474
▁gusta	-10.2476
部分	-10.2478
ώς	-10.248
▁위	-10.2481
▁cm	-10.2485
▁गई	-10.2487
▁social	-10.2487
los	-10.2489
▁عمر	-10.249
▁nghĩ	-10.2491
真	-10.2491
ある	-10.2492
بي	-10.2493
▁دغ	-10.2494
▁말	-10.2495
fo	-10.2497
كي	-10.2503
ure	-10.2505
▁سم	-10.2508
luk	-10.2511
老	-10.2511
▁마	-10.2511
▁pres	-10.2515
▁няко	-10.2517
的时候	-10.2518
단	-10.2519
▁correspond	-10.2522
少	-10.2523
▁geld	-10.2528
▁അത	-10.2528
▁مل	-10.2529
無	-10.2539
▁geht	-10.2539
por	-10.2543
其	-10.2551
▁زمان	-10.2551
▁就是	-10.2553
▁hanno	-10.2553
▁help	-10.2556
▁vot	-10.2557
▁support	-10.2563
од	-10.2567
ιο	-10.2569
五	-10.2574
國	-10.2577
ツ	-10.2584
운	-10.2585
berapa	-10.2585
▁moins	-10.2586
▁echt	-10.2586
▁котор	-10.2588
▁เหม	-10.2593
tic	-10.2597
ons	-10.2598
اق	-10.2599
▁tri	-10.2599
▁gel	-10.26
▁pia	-10.2602
包装	-10.2609
يك	-10.2614
▁วม	-10.2615
би	-10.2621
يق	-10.2623
▁win	-10.2626
▁개	-10.2627
▁club	-10.2631
▁اما	-10.2632
▁iş	-10.2633
우	-10.2634
▁ഗ	-10.2637
sco	-10.2639
對	-10.2641
▁tốt	-10.2642
气	-10.2642
▁งหมด	-10.2643
▁cùng	-10.2644
▁پاس	-10.2645
كر	-10.2656
▁там	-10.2663
▁contre	-10.2665
▁روز	-10.2667
یک	-10.2669
▁ir	-10.267
▁fan	-10.2671
▁national	-10.2671
ib	-10.2676
적인	-10.2679
ούς	-10.268
ço	-10.2685
ret	-10.2685
▁งเป	-10.2688
開	-10.2688
選	-10.269
ces	-10.2694
▁paris	-10.2695
ฏ	-10.2698
▁आत	-10.2699
▁thông	-10.2699
▁ただ	-10.27
▁delen	-10.2701
▁고	-10.2702
▁أنه	-10.2705
cor	-10.2705
ние	-10.2707
▁say	-10.2707
بو	-10.2708
▁thời	-10.2708
▁estoy	-10.2713
rar	-10.2714
▁iphone	-10.2716
▁تعرف	-10.2722
▁moi	-10.273
▁anda	-10.2732
ées	-10.2735
ер	-10.2737
▁خیال	-10.2737
すると	-10.2739
سو	-10.2742
▁ev	-10.2744
形	-10.2744
τρ	-10.2744
▁นค	-10.2746
▁via	-10.2747
με	-10.2748
▁stati	-10.275
ев	-10.275
▁شہر	-10.2757
▁opera	-10.2759
▁پہلے	-10.2759
ков	-10.276
▁lang	-10.2761
led	-10.2761
▁σου	-10.2762
▁سا	-10.2762
▁autres	-10.2764
▁ohne	-10.2766
▁때	-10.2768
λε	-10.2769
▁better	-10.2771
uit	-10.2772
▁mark	-10.2775
کل	-10.2777
▁ตาม	-10.2778
ssen	-10.2787
▁years	-10.2797
ται	-10.2802
uka	-10.2802
tz	-10.2807
▁cada	-10.2808
曲	-10.2808
▁после	-10.2809
▁park	-10.2812
清	-10.2814
▁people	-10.2814
▁மல	-10.2815
ภ	-10.2815
▁μας	-10.2815
可能	-10.2819
▁déçu	-10.282
до	-10.2822
ves	-10.2822
▁damit	-10.2823
▁blev	-10.2826
像	-10.2827
αρ	-10.2833
▁nova	-10.2835
▁estado	-10.2835
▁아	-10.2838
elle	-10.2839
因	-10.2845
▁sen	-10.285
▁εν	-10.2853
ở	-10.2855
なく	-10.286
upă	-10.2864
▁parti	-10.2866
▁zufrieden	-10.2868
▁second	-10.2868
ボ	-10.2872
▁不过	-10.2873
デ	-10.2874
اط	-10.2874
upakan	-10.2875
▁nế	-10.2875
▁pin	-10.2875
▁service	-10.2876
のか	-10.2877
▁tema	-10.2877
▁keep	-10.2878
▁karena	-10.2882
ニ	-10.2885
▁يوه	-10.2885
▁pat	-10.2891
mus	-10.2893
▁zou	-10.2895
doch	-10.2896
▁radio	-10.2896
▁viene	-10.2897
▁επι	-10.2899
gre	-10.2903
▁absolut	-10.2904
▁dieses	-10.2905
το	-10.2905
ική	-10.2911
▁vo	-10.2911
民	-10.2911
▁large	-10.2913
▁دوست	-10.2915
cion	-10.2916
▁eso	-10.2916
▁па	-10.2917
▁ط	-10.2919
uk	-10.2921
▁тем	-10.2923
ज	-10.2925
dzie	-10.2927
▁तन	-10.2928
▁nad	-10.293
头	-10.2931
啊	-10.2931
▁ہر	-10.2935
▁ging	-10.2936
위	-10.2936
解	-10.2937
▁april	-10.2937
▁later	-10.2939
▁علم	-10.2942
ον	-10.2942
▁الل	-10.2944
流	-10.2945
▁ord	-10.2947
cker	-10.2954
زم	-10.2954
っている	-10.2956
▁جی	-10.2958
اني	-10.2959
▁album	-10.2962
▁ý	-10.2963
▁रय	-10.2968
低	-10.2969
▁தப	-10.2972
▁chu	-10.2974
▁bre	-10.2977
区	-10.2981
▁nh	-10.2982
tif	-10.2983
▁last	-10.2983
▁pr	-10.2987
▁sens	-10.2988
处	-10.2989
▁định	-10.299
▁έχουν	-10.299
▁seperti	-10.299
구	-10.2995
문	-10.2998
▁unter	-10.3
▁apple	-10.3001
▁ara	-10.3001
▁kendi	-10.3006
▁give	-10.3008
▁کنند	-10.3009
▁show	-10.3013
mon	-10.3016
▁thought	-10.3017
▁공	-10.3025
▁kr	-10.3029
▁flu	-10.3032
▁nas	-10.3033
▁الج	-10.3039
▁weil	-10.3042
怎么	-10.3049
▁cấp	-10.3049
▁different	-10.3049
▁кога	-10.305
▁learning	-10.3051
cr	-10.3053
cı	-10.3054
یان	-10.3054
hal	-10.306
美国	-10.3067
جه	-10.3072
▁leur	-10.3074
▁numa	-10.3075
eli	-10.308
▁στα	-10.308
وال	-10.3081
ър	-10.3082
▁fine	-10.3083
tir	-10.3085
eur	-10.3085
▁hor	-10.3085
▁finde	-10.3087
▁home	-10.3092
▁até	-10.3094
าม	-10.3104
체	-10.3106
▁پا	-10.3108
▁recomiendo	-10.3108
▁trước	-10.3109
▁อว	-10.3109
ις	-10.311
▁paskah	-10.3113
σα	-10.3115
uc	-10.3119
▁hold	-10.312
▁using	-10.3127
▁thu	-10.3129
▁aasta	-10.3133
nas	-10.3133
وه	-10.3136
จะ	-10.3142
rio	-10.3143
oso	-10.3146
oni	-10.3151
บร	-10.3152
خت	-10.3158
▁trans	-10.316
less	-10.3165
ダ	-10.3165
▁без	-10.3166
▁tersebut	-10.3168
▁आर	-10.3168
▁doğru	-10.3168
▁should	-10.3168
▁première	-10.3168
▁उह	-10.3171
회	-10.3181
관	-10.3184
▁caso	-10.3186
▁گی	-10.3192
τη	-10.3198
▁мо	-10.32
▁mille	-10.3204
▁bang	-10.3206
▁delle	-10.3208
▁control	-10.3209
▁ഡ	-10.321
and	-10.3213
社	-10.3225
尔	-10.3228
布	-10.3228
ā	-10.3228
▁nên	-10.3229
▁leg	-10.3229
▁jamais	-10.3229
ally	-10.3237
▁juni	-10.3238
受	-10.3238
اك	-10.3238
读	-10.3239
▁стар	-10.3241
院	-10.3245
▁मक	-10.3245
この	-10.3245
▁order	-10.3246
선	-10.3247
거	-10.3247
▁edit	-10.3249
uch	-10.3257
takse	-10.326
▁persona	-10.3262
aux	-10.3267
όν	-10.3268
▁sun	-10.3271
mbo	-10.3272
▁telefon	-10.3277
وق	-10.3278
带	-10.3281
▁đố	-10.3282
▁کل	-10.3286
军	-10.3287
lat	-10.3287
▁време	-10.3287
▁bộ	-10.3289
▁ngày	-10.3289
▁உர	-10.3289
▁इज	-10.329
▁गए	-10.3292
ес	-10.3294
▁زمین	-10.3297
bia	-10.3299
اج	-10.33
ائے	-10.3303
nic	-10.3313
▁소	-10.3313
dur	-10.3316
▁años	-10.3317
ウ	-10.3318
空	-10.3323
▁दक	-10.3325
bus	-10.3329
▁return	-10.3334
▁perfecto	-10.3335
▁bunu	-10.3337
▁campo	-10.3337
fica	-10.3337
▁mul	-10.334
ска	-10.334
ερ	-10.3341
第	-10.3341
▁photo	-10.3345
ış	-10.3346
朝	-10.335
觉得	-10.3351
▁знаеш	-10.3353
▁item	-10.3354
▁gibt	-10.3355
▁music	-10.3355
▁foram	-10.3357
▁ordered	-10.3359
▁gün	-10.336
货	-10.3361
常	-10.3361
▁ام	-10.3361
▁windows	-10.3364
적	-10.3364
ń	-10.3365
제	-10.3369
▁presidente	-10.337
റ	-10.3371
▁zich	-10.3371
▁kota	-10.3373
gan	-10.3378
▁lebih	-10.338
ото	-10.3383
สม	-10.3384
aan	-10.3384
▁hond	-10.3389
▁diğer	-10.3395
▁tut	-10.3398
▁ломоносов	-10.34
▁والم	-10.3401
yla	-10.3403
▁ดส	-10.3405
收	-10.3406
ice	-10.3406
問題	-10.3407
▁mot	-10.3409
▁system	-10.3409
▁bor	-10.3411
▁człowiek	-10.3411
▁cần	-10.3413
ono	-10.3415
▁watu	-10.3418
此	-10.342
▁micro	-10.3423
▁شمال	-10.3428
▁งม	-10.3428
▁それ	-10.343
▁dies	-10.343
جا	-10.3431
感觉	-10.3437
▁அவர	-10.3441
▁times	-10.3441
né	-10.3443
▁धन	-10.345
購入しました	-10.3451
λι	-10.3451
▁tempo	-10.3457
▁있는	-10.3461
ат	-10.3463
▁soit	-10.3466
花	-10.3467
▁گ	-10.3468
فت	-10.347
ell	-10.3472
▁bấ	-10.3473
▁depuis	-10.3473
▁όπως	-10.3473
▁നത	-10.3486
يز	-10.3491
▁dapat	-10.3493
▁anos	-10.3497
lijk	-10.3499
려	-10.35
국	-10.3503
▁бо	-10.3503
進	-10.3504
▁bak	-10.3504
án	-10.3505
یز	-10.3509
tiva	-10.351
ert	-10.3513
eb	-10.3513
tions	-10.3514
▁being	-10.3515
ட	-10.3515
▁actual	-10.3515
▁би	-10.3516
▁rec	-10.3517
tos	-10.3521
بوده	-10.3524
▁нас	-10.3527
▁داخل	-10.353
سل	-10.3533
器	-10.3533
▁گفت	-10.3536
▁trường	-10.3536
رت	-10.3537
lia	-10.3538
▁sum	-10.3539
▁будет	-10.354
tul	-10.3542
▁landet	-10.3542
rem	-10.3543
▁leicht	-10.3546
▁آیا	-10.3546
ονται	-10.355
▁этого	-10.3552
▁sud	-10.3553
▁arm	-10.3556
▁passt	-10.3564
oc	-10.3568
lle	-10.3572
▁kallas	-10.3574
ht	-10.3575
εις	-10.3576
▁bank	-10.3577
eux	-10.358
▁suo	-10.3582
▁momento	-10.3585
gem	-10.3588
tura	-10.3589
څ	-10.359
▁sy	-10.3595
نت	-10.3598
研究	-10.3598
▁toujours	-10.3598
▁شما	-10.36
▁مقابل	-10.36
▁modern	-10.3604
▁rein	-10.3605
ación	-10.3608
▁ham	-10.3615
fen	-10.362
▁เพราะ	-10.3621
▁lleg	-10.3621
계	-10.3623
のに	-10.3623
▁mijn	-10.3624
▁veel	-10.3626
▁usb	-10.3627
กร	-10.3628
ټ	-10.3632
発	-10.3634
kon	-10.3638
▁gal	-10.3638
▁करण	-10.3641
保	-10.3644
è	-10.3646
ness	-10.3649
▁feel	-10.366
▁اہم	-10.3661
▁ثم	-10.3661
▁صرف	-10.3661
▁پیدا	-10.3662
▁нещо	-10.3663
▁plastic	-10.3663
ły	-10.3663
んだ	-10.3666
▁perfect	-10.3666
▁kazi	-10.3672
aire	-10.3673
ですね	-10.3679
ята	-10.3683
薄	-10.3686
സ	-10.3691
▁大	-10.3694
demás	-10.3698
▁read	-10.3699
▁artikel	-10.3703
pan	-10.3703
▁vom	-10.3704
▁tanto	-10.3707
パ	-10.371
miştir	-10.3712
ευ	-10.3714
maste	-10.3716
米	-10.3723
石	-10.3724
▁அன	-10.3724
毛	-10.3724
▁جنگ	-10.3724
▁pháp	-10.3727
▁received	-10.3729
▁week	-10.3731
▁fri	-10.3732
▁अक	-10.3733
▁bur	-10.3735
ori	-10.374
▁pé	-10.3741
できる	-10.3748
▁sagen	-10.3748
▁staat	-10.3757
용	-10.376
rze	-10.3761
▁project	-10.3763
サ	-10.3766
تم	-10.3772
▁ea	-10.3781
▁motor	-10.3782
iva	-10.3785
▁cumple	-10.3788
▁encore	-10.3788
▁vụ	-10.3789
▁знаешь	-10.3789
ndi	-10.3793
▁etti	-10.3794
▁свои	-10.3795
sal	-10.3798
▁jak	-10.3801
▁bay	-10.3803
▁ออก	-10.3805
ке	-10.3806
▁vel	-10.3809
▁evet	-10.3811
ral	-10.3819
रण	-10.3822
ουμε	-10.3825
切	-10.3825
▁वस	-10.3829
▁ка	-10.3829
dia	-10.3832
▁commune	-10.3837
▁sei	-10.3837
▁왕	-10.3841
λα	-10.3845
▁thứ	-10.3845
ò	-10.3852
▁another	-10.3852
▁پاکستان	-10.3852
▁hebben	-10.3853
▁havet	-10.3853
▁verdad	-10.3853
▁europa	-10.3854
ator	-10.3854
▁ng	-10.3856
▁з	-10.3857
▁거	-10.3859
什么	-10.3865
強	-10.3865
▁年月	-10.3867
▁mara	-10.3871
ação	-10.3871
ډ	-10.3872
ama	-10.3875
iki	-10.3876
▁year	-10.3879
▁zwei	-10.3889
ذا	-10.3892
▁dr	-10.3893
▁ви	-10.3895
보	-10.3897
▁otro	-10.3899
▁giả	-10.3899
ږ	-10.3905
▁coup	-10.3906
▁கண	-10.3909
sche	-10.391
▁qual	-10.3912
修	-10.3915
▁usar	-10.3916
皮	-10.3916
▁número	-10.3916
ны	-10.3916
лю	-10.3917
▁част	-10.3918
▁тези	-10.3918
▁دنیا	-10.392
افغانستان	-10.3922
пу	-10.3924
ایی	-10.3924
▁рас	-10.3925
یس	-10.3926
▁description	-10.3928
▁porta	-10.3931
▁دار	-10.3933
落	-10.3939
▁gre	-10.394
▁inc	-10.394
▁simple	-10.3941
▁yet	-10.3941
▁김	-10.3942
▁io	-10.3944
mini	-10.3945
▁أي	-10.3946
▁muda	-10.395
▁چی	-10.3955
▁چند	-10.3956
▁dei	-10.396
се	-10.3961
▁cara	-10.3963
▁cel	-10.3965
ще	-10.3969
▁นธ	-10.3976
▁может	-10.3978
情	-10.3978
ıyor	-10.3978
▁रभ	-10.3979
▁led	-10.3981
▁بسیار	-10.3981
▁human	-10.3987
کن	-10.3988
▁ay	-10.3989
▁ud	-10.3991
▁taille	-10.3992
▁kaufen	-10.3993
▁hur	-10.3993
▁mężczyzna	-10.3994
czy	-10.3998
▁غیر	-10.4001
▁vale	-10.4003
رف	-10.402
▁eesti	-10.4021
▁ως	-10.4022
▁β	-10.4024
▁έ	-10.4028
▁sz	-10.4028
hel	-10.403
▁απο	-10.403
▁γ	-10.403
رق	-10.4033
medeltemperatur	-10.4034
▁comment	-10.4037
ビ	-10.4045
▁cane	-10.4045
▁между	-10.4047
▁งกฤษ	-10.4047
孩子	-10.4047
▁guerra	-10.4047
▁مربع	-10.4047
▁şekilde	-10.4048
▁ш	-10.4049
▁seda	-10.4052
ール	-10.4052
▁mình	-10.4054
gé	-10.4057
ex	-10.4058
▁пол	-10.4058
▁str	-10.4061
î	-10.4061
▁φ	-10.4062
▁questo	-10.4065
▁ترین	-10.4066
万	-10.4066
ского	-10.4067
يه	-10.4069
rei	-10.407
br	-10.407
▁동	-10.4072
▁난	-10.4074
▁favor	-10.4077
یوں	-10.4078
ํา	-10.4081
▁گرفت	-10.4084
▁bell	-10.4084
fl	-10.4086
▁sure	-10.4088
▁día	-10.4088
ение	-10.4094
▁แค	-10.4095
▁stand	-10.4096
▁าม	-10.4098
▁gerät	-10.4101
▁theo	-10.4105
▁sama	-10.4107
amento	-10.4109
จร	-10.4109
著	-10.4112
▁đá	-10.4115
▁sử	-10.4116
▁pc	-10.4116
▁گے	-10.4119
▁sar	-10.4121
▁hält	-10.4121
▁both	-10.4121
▁пред	-10.4121
▁fazer	-10.4123
▁few	-10.4123
▁ani	-10.4126
▁city	-10.4128
喜欢	-10.4128
▁euro	-10.413
ения	-10.4132
bri	-10.4137
▁นย	-10.4137
▁star	-10.4139
แบบ	-10.4145
▁пи	-10.4147
มาก	-10.4147
▁meses	-10.4148
▁mat	-10.4154
▁mont	-10.4155
دن	-10.416
▁live	-10.4163
فق	-10.4164
com	-10.4164
买了	-10.4164
ev	-10.4169
▁னத	-10.4169
رم	-10.4176
川	-10.4178
▁yeye	-10.418
▁няма	-10.418
されている	-10.418
می	-10.4182
▁کرتا	-10.4183
으	-10.4184
▁belle	-10.4186
▁δι	-10.4187
▁fil	-10.4191
رب	-10.4192
▁بد	-10.4194
ische	-10.4194
▁rest	-10.4196
充電	-10.42
▁matrimonio	-10.4201
▁find	-10.4202
ژ	-10.4203
ปร	-10.4205
▁terra	-10.4207
一些	-10.4209
enda	-10.4211
▁süre	-10.4211
▁ма	-10.4212
▁बत	-10.4213
แม	-10.4216
かなり	-10.4216
ας	-10.4218
▁bli	-10.4219
▁rapide	-10.422
▁मल	-10.422
▁شوي	-10.4224
▁qué	-10.4227
عة	-10.4233
近	-10.4236
▁mă	-10.4239
▁ढ	-10.424
ül	-10.4242
▁kỳ	-10.4245
ฮ	-10.4245
▁university	-10.4246
▁没有	-10.4246
▁bahwa	-10.4247
▁arasında	-10.4247
▁العمل	-10.4249
▁dal	-10.425
ιά	-10.4253
▁عنوان	-10.4254
▁खर	-10.4259
▁còn	-10.4261
▁نوع	-10.4263
mie	-10.4267
▁historia	-10.4267
pois	-10.4269
anda	-10.4275
▁khu	-10.4275
▁ty	-10.4275
hn	-10.4278
▁感觉	-10.4279
▁kila	-10.428
▁ذ	-10.428
▁δια	-10.4281
▁تع	-10.4286
至	-10.4291
▁otros	-10.4292
▁अल	-10.4295
▁page	-10.4299
▁david	-10.43
▁stabil	-10.43
ức	-10.4302
付	-10.4303
▁amerika	-10.4305
學	-10.4307
▁significa	-10.4308
족	-10.4308
신	-10.431
退货	-10.4313
ออก	-10.4313
ケース	-10.4313
zie	-10.4318
▁शत	-10.4322
▁powiedział	-10.4322
▁حد	-10.4325
电	-10.4327
het	-10.4328
ズ	-10.433
质量	-10.4331
▁над	-10.4334
▁นเป	-10.434
▁เวลา	-10.4343
リー	-10.4343
▁quá	-10.4343
▁bả	-10.4348
▁trouve	-10.4353
▁tous	-10.4358
▁mismo	-10.4362
▁گل	-10.4362
سن	-10.4363
▁przy	-10.4363
▁mag	-10.4364
▁нет	-10.4371
ну	-10.4372
▁vai	-10.4375
щ	-10.4379
室	-10.4379
▁pun	-10.4379
页	-10.438
▁είμαι	-10.438
ство	-10.4381
▁jaar	-10.4381
▁ہوئے	-10.4382
そう	-10.4383
ancak	-10.4384
▁cent	-10.4387
nar	-10.4388
▁peter	-10.4389
▁weg	-10.4391
في	-10.4392
▁lä	-10.4395
ราช	-10.4395
una	-10.4398
▁president	-10.4399
트	-10.44
мен	-10.4401
▁meu	-10.4409
었다	-10.441
▁일본	-10.441
тр	-10.4411
nych	-10.4411
μπ	-10.4412
▁الص	-10.4412
nos	-10.4414
ภาพ	-10.4417
▁kol	-10.4419
ша	-10.4423
قل	-10.4424
▁மத	-10.4426
larda	-10.4427
dre	-10.4431
使い	-10.4434
▁fun	-10.4441
▁europe	-10.4443
πο	-10.4446
▁добре	-10.4448
▁мисля	-10.4448
▁yeah	-10.4449
▁negara	-10.4449
時に	-10.4449
都是	-10.4451
▁white	-10.4453
▁jours	-10.4454
lö	-10.4454
tten	-10.4457
rin	-10.4457
▁beau	-10.4461
ะหว	-10.4463
▁şarkı	-10.4464
▁avai	-10.4468
▁besser	-10.4472
▁brand	-10.4472
▁zal	-10.4477
وان	-10.4478
▁pop	-10.4482
estão	-10.4482
▁바그너	-10.4482
▁fla	-10.4493
▁متحد	-10.4495
▁جنوب	-10.4496
▁eerste	-10.4499
bol	-10.4499
オ	-10.4503
▁rou	-10.4503
فا	-10.4503
dü	-10.4508
ลง	-10.4509
ισ	-10.451
钱	-10.4511
▁دن	-10.4513
▁sollte	-10.4514
とは	-10.4515
▁articles	-10.4515
約	-10.4516
▁आक	-10.4516
▁உற	-10.4516
▁افراد	-10.4516
直接	-10.4517
▁cơ	-10.4517
▁우리	-10.4517
之后	-10.4519
▁коя	-10.4525
▁しかし	-10.4528
▁คศ	-10.4528
とも	-10.453
ını	-10.4533
▁بیشتر	-10.4533
▁чем	-10.4534
▁sed	-10.4534
▁maxim	-10.4535
▁vu	-10.4536
▁ved	-10.4538
▁geri	-10.4542
νε	-10.4542
▁داد	-10.4543
▁since	-10.455
ثر	-10.455
جن	-10.4551
hen	-10.4554
வர	-10.4558
▁للم	-10.4558
▁선	-10.4563
jili	-10.4565
vin	-10.4574
▁تن	-10.4574
عم	-10.4578
ary	-10.4579
ры	-10.4582
死	-10.4585
未	-10.4585
▁déjà	-10.4585
▁hivyo	-10.4586
▁hakkında	-10.4586
▁dụng	-10.4587
▁где	-10.4587
▁ska	-10.4592
▁found	-10.4592
▁james	-10.4597
▁저	-10.4602
เบ	-10.4604
อด	-10.4604
ту	-10.4605
▁sport	-10.4607
▁ένας	-10.4608
cken	-10.4608
▁commande	-10.4618
▁looks	-10.4635
▁باید	-10.4637
▁partir	-10.4643
▁bản	-10.4645
ский	-10.4645
▁serie	-10.4646
プ	-10.4649
他的	-10.465
▁nichts	-10.4652
メ	-10.4652
кс	-10.4653
火	-10.4655
脚	-10.4655
▁thống	-10.4655
▁millimeter	-10.4655
▁apenas	-10.4655
nella	-10.4655
og	-10.4655
古	-10.4657
▁يجب	-10.4657
▁какво	-10.4659
▁ہوتی	-10.4662
พระ	-10.4665
호	-10.4667
σε	-10.4668
▁جوړ	-10.4669
▁उम	-10.4672
▁ษ	-10.4674
▁przez	-10.4677
▁लक	-10.4681
ình	-10.4681
▁teil	-10.4683
ția	-10.4688
▁though	-10.4689
▁biz	-10.4689
ug	-10.4689
▁นผ	-10.469
的书	-10.4692
▁mars	-10.4696
▁vad	-10.4698
▁لن	-10.4713
商	-10.4713
▁سوری	-10.4715
▁cosa	-10.4716
穿	-10.4717
래	-10.4724
음	-10.4724
田	-10.4724
將	-10.4725
▁всички	-10.4725
▁huvudstad	-10.4725
▁حق	-10.4725
▁علاو	-10.4726
dores	-10.4726
▁इत	-10.4727
rak	-10.4728
یل	-10.4729
▁stato	-10.4731
▁estava	-10.4734
▁ak	-10.4737
▁medeltemperatur	-10.4738
▁อะไร	-10.4739
लब	-10.4742
▁local	-10.4743
▁mine	-10.4743
▁eerst	-10.4744
cio	-10.4747
▁üle	-10.475
ду	-10.4754
配	-10.4766
ime	-10.4768
bre	-10.4768
▁آل	-10.4769
▁آب	-10.477
τά	-10.4772
▁vida	-10.4773
▁lock	-10.4787
ding	-10.4788
角	-10.4788
dio	-10.4788
達	-10.4789
座	-10.4791
하다	-10.4791
▁바	-10.4793
▁گھر	-10.4796
▁liên	-10.4797
ance	-10.4799
▁گر	-10.48
▁จร	-10.4801
以上	-10.4803
住	-10.4807
▁نوم	-10.4808
▁ادار	-10.4809
encia	-10.4809
機能	-10.4809
경	-10.481
▁مهم	-10.4811
คน	-10.4813
조	-10.4814
▁คํา	-10.4814
nederbörd	-10.4815
tta	-10.4817
ket	-10.4818
になる	-10.4818
▁люб	-10.482
mış	-10.4822
▁pena	-10.4823
adas	-10.4823
▁worked	-10.4824
ような	-10.4825
▁độ	-10.4826
▁kunne	-10.4828
▁dua	-10.4829
شن	-10.4831
ण	-10.4831
▁head	-10.4831
▁சம	-10.4833
▁deja	-10.4835
▁دولت	-10.4835
cc	-10.4843
ள	-10.4845
实	-10.4848
لة	-10.4849
只	-10.4851
几	-10.486
▁tipo	-10.4862
断	-10.4862
ios	-10.4863
士	-10.4863
箱	-10.4865
ski	-10.4865
世	-10.4865
或	-10.4865
غه	-10.4866
▁screen	-10.4866
▁took	-10.487
▁अत	-10.4871
▁vie	-10.4875
▁думаю	-10.4877
رد	-10.4886
ches	-10.4886
校	-10.4887
ții	-10.4887
▁दन	-10.4888
مة	-10.4892
ário	-10.4899
dig	-10.4903
zer	-10.4904
▁avant	-10.4915
essere	-10.4919
ئے	-10.492
ใจ	-10.4921
▁job	-10.4921
▁μπορεί	-10.4932
▁donde	-10.4933
▁bild	-10.4933
▁stick	-10.4936
政	-10.4936
服	-10.4937
神	-10.4937
林	-10.4938
円	-10.4938
▁können	-10.4938
▁pretty	-10.4938
▁aynı	-10.4938
▁hành	-10.4938
短	-10.4939
▁procent	-10.4939
سم	-10.4942
▁cheap	-10.4947
can	-10.4948
▁вас	-10.4949
kli	-10.495
▁weiter	-10.4951
▁start	-10.4954
yan	-10.4956
▁เคย	-10.4957
वर	-10.4959
▁งค	-10.4962
aya	-10.4963
▁handy	-10.4966
gna	-10.497
しか	-10.4971
▁sao	-10.4974
のが	-10.4975
ชน	-10.4976
نج	-10.4977
▁中	-10.4977
▁cable	-10.498
▁ön	-10.4982
قول	-10.4983
失	-10.4989
▁alto	-10.4993
라는	-10.4994
▁لكن	-10.5003
▁ny	-10.5003
학	-10.5009
船	-10.5009
▁pantalla	-10.5009
說	-10.5009
▁към	-10.5009
跟	-10.5009
島	-10.501
▁பயன	-10.501
▁tài	-10.5011
▁richtig	-10.5011
▁achat	-10.5011
rraste	-10.5012
▁why	-10.5013
▁больше	-10.5019
▁tel	-10.5026
گان	-10.5028
بت	-10.5028
▁wana	-10.5029
ole	-10.503
خر	-10.5033
时间	-10.5034
▁schöne	-10.5039
ude	-10.5039
dar	-10.5039
との	-10.5039
▁reste	-10.504
▁cost	-10.504
▁더	-10.5043
▁move	-10.5045
▁ö	-10.5047
▁ผล	-10.5047
▁عشر	-10.5049
れば	-10.5051
▁here	-10.5053
ھ	-10.5062
ско	-10.5063
▁لیا	-10.5066
βα	-10.5066
▁sil	-10.5066
▁قال	-10.5067
کت	-10.5068
▁cerca	-10.507
图	-10.5071
러	-10.5076
بان	-10.5077
یو	-10.5079
▁karşı	-10.5082
임	-10.5082
형	-10.5082
吃	-10.5082
▁especial	-10.5082
▁black	-10.5083
▁protector	-10.5087
▁hätte	-10.5087
表	-10.5088
▁ambayo	-10.5089
▁الذين	-10.5091
αγ	-10.5093
▁tun	-10.5093
▁आद	-10.5094
ണ	-10.5097
▁خاص	-10.5099
â	-10.51
▁sale	-10.5101
一般	-10.5101
pin	-10.5102
▁meng	-10.5102
gle	-10.5102
▁colis	-10.5104
pós	-10.5105
sha	-10.5106
sc	-10.5107
▁parfait	-10.5107
udi	-10.5109
▁pla	-10.5109
แห	-10.5113
ஸ	-10.5115
ましたが	-10.5119
ør	-10.5123
▁피	-10.5128
へ	-10.5132
oli	-10.5137
бр	-10.5139
▁kor	-10.5142
area	-10.5143
sam	-10.5147
گو	-10.5151
maya	-10.5153
ベ	-10.5153
急	-10.5154
▁đại	-10.5155
▁இட	-10.5155
▁έχω	-10.5155
▁στις	-10.5155
ности	-10.5155
▁شروع	-10.5155
▁regniga	-10.5155
▁tiền	-10.5155
▁گئے	-10.5156
▁god	-10.5156
▁சர	-10.5157
▁sudah	-10.5157
شان	-10.5162
▁kommer	-10.5163
bla	-10.5165
▁notice	-10.5166
▁συν	-10.5168
بی	-10.5169
bit	-10.5171
早	-10.5171
▁малко	-10.5171
▁εκ	-10.5171
win	-10.5172
esc	-10.5174
▁απ	-10.5175
▁شاه	-10.5176
▁वत	-10.5177
▁யப	-10.5178
▁अब	-10.5181
▁日	-10.5184
ões	-10.5186
▁zi	-10.5188
berg	-10.5192
되었다	-10.5201
▁fu	-10.5202
▁sat	-10.5204
▁dura	-10.5208
сь	-10.5208
vas	-10.5209
bur	-10.5212
▁grupo	-10.5213
ım	-10.5213
▁kami	-10.5216
▁pl	-10.5218
▁neden	-10.5218
別	-10.5219
يين	-10.5219
走	-10.5221
很多	-10.5222
dit	-10.5222
rim	-10.5224
يف	-10.5227
派	-10.5228
▁catalogue	-10.5228
▁segundo	-10.5229
king	-10.5229
▁اذا	-10.5229
▁ډير	-10.5231
مت	-10.5232
发现	-10.5235
à	-10.5236
тази	-10.5237
▁کریں	-10.5238
bal	-10.5241
bro	-10.5244
▁باز	-10.5244
▁گو	-10.5246
เง	-10.5247
的に	-10.5251
▁अप	-10.5251
▁etc	-10.5265
of	-10.5266
마	-10.5268
入れ	-10.5268
▁जह	-10.527
▁tüm	-10.5272
ries	-10.5272
▁ın	-10.5276
其他	-10.5276
▁本	-10.5281
▁ليس	-10.5283
▁house	-10.5287
▁sous	-10.5287
▁पड	-10.5287
υς	-10.529
▁很	-10.529
業	-10.5291
▁anak	-10.5293
▁σαν	-10.5294
ence	-10.5299
▁أنا	-10.5299
lığı	-10.53
收到	-10.5301
波	-10.5302
頭	-10.5303
▁bắt	-10.5303
线	-10.5303
见	-10.5303
▁yêu	-10.5303
▁three	-10.5303
▁سکتے	-10.5303
▁tiếng	-10.5304
▁استفاد	-10.5304
▁tổ	-10.5304
▁unajua	-10.5305
▁hình	-10.5305
▁الكثير	-10.5306
張	-10.5306
▁vita	-10.5307
ญ	-10.531
▁brasil	-10.5311
ingen	-10.5312
▁dur	-10.5314
▁นได	-10.5316
的な	-10.5319
▁hoàn	-10.5326
▁تكون	-10.5332
▁만	-10.5333
کې	-10.5333
▁idea	-10.5333
▁عليه	-10.5335
▁งต	-10.5339
ira	-10.534
idi	-10.5345
тер	-10.5347
iyor	-10.5353
rij	-10.5353
▁лет	-10.5353
çi	-10.5354
▁sull	-10.5355
λά	-10.536
κα	-10.5362
▁soll	-10.5363
ña	-10.5363
百	-10.5363
▁bagi	-10.5366
قب	-10.5367
▁jean	-10.5369
ieren	-10.537
حي	-10.537
▁장	-10.537
ador	-10.5373
بع	-10.5374
▁ധ	-10.5375
يع	-10.5376
れる	-10.5377
▁εδώ	-10.5377
yu	-10.5378
▁memiliki	-10.5379
▁kurz	-10.5379
▁ъ	-10.5381
▁báo	-10.5381
▁lingua	-10.5381
▁llegado	-10.5383
▁decir	-10.5384
ции	-10.5385
hl	-10.5386
تون	-10.5387
ста	-10.5389
bet	-10.5396
ция	-10.5399
▁بو	-10.5402
▁site	-10.5402
iri	-10.5407
的人	-10.5408
dis	-10.5409
▁เง	-10.5414
▁후	-10.5417
だと	-10.5418
▁libro	-10.542
▁groß	-10.5424
▁bot	-10.5425
vet	-10.5426
▁kä	-10.5429
▁pies	-10.5431
論	-10.5433
чен	-10.5434
▁นม	-10.5435
▁prin	-10.5439
تے	-10.5441
ную	-10.5443
▁ole	-10.5443
들이	-10.5448
คล	-10.5451
▁kitu	-10.5451
▁δύο	-10.5452
▁kaputt	-10.5452
客服	-10.5452
▁robert	-10.5453
▁kufanya	-10.5454
▁free	-10.5456
▁gift	-10.5456
▁pré	-10.5457
▁นอ	-10.5459
▁अगर	-10.5459
▁chini	-10.5463
ğı	-10.5464
▁lsc	-10.5466
▁mur	-10.5468
▁وكان	-10.5469
▁wanted	-10.547
▁برخه	-10.5471
▁रख	-10.5471
▁تحت	-10.5472
적으로	-10.5476
一点	-10.5476
▁한다	-10.5479
▁press	-10.548
pr	-10.5486
▁natural	-10.5488
ولو	-10.5488
▁lit	-10.5493
unda	-10.5493
▁кто	-10.5494
▁bel	-10.5495
비	-10.5499
▁पश	-10.55
已	-10.5504
mit	-10.5505
▁val	-10.5505
▁roz	-10.5507
完全	-10.5507
▁ihr	-10.5507
▁다	-10.5508
▁wil	-10.5509
▁sisi	-10.5511
▁ดท	-10.5512
ntes	-10.5513
▁inga	-10.5514
▁yok	-10.5517
▁asteroid	-10.5518
▁этом	-10.5519
也是	-10.5521
کي	-10.5523
▁bout	-10.5526
局	-10.5528
む	-10.5528
▁γιατί	-10.5528
省	-10.5528
▁india	-10.5529
スト	-10.5529
▁그녀	-10.5529
▁تعداد	-10.5529
▁petite	-10.553
شر	-10.5531
▁skull	-10.5531
ะว	-10.5531
▁lugar	-10.5532
▁اوس	-10.5535
ction	-10.5536
▁อส	-10.5539
▁bana	-10.5544
▁dla	-10.5545
mist	-10.5546
▁ځ	-10.555
▁dice	-10.5553
▁fest	-10.5562
▁بم	-10.5566
كا	-10.5571
▁حل	-10.5574
▁متر	-10.5576
十分	-10.558
での	-10.5582
ill	-10.5583
▁drie	-10.5586
▁とても	-10.5588
▁چیز	-10.5588
不好	-10.5589
▁baş	-10.5594
▁فان	-10.5594
▁مه	-10.5594
▁nam	-10.5597
▁multi	-10.5597
▁cao	-10.56
料	-10.5603
端	-10.5603
ient	-10.5604
▁cuố	-10.5604
▁demasiado	-10.5604
▁something	-10.5604
▁september	-10.5604
▁phần	-10.5605
▁لگتا	-10.5605
▁이름	-10.5605
▁genau	-10.5606
▁میلاد	-10.5606
▁बढ	-10.5608
▁village	-10.5608
▁gian	-10.561
heid	-10.5611
▁our	-10.5612
▁کرده	-10.5614
▁لکه	-10.5614
るので	-10.5614
عت	-10.5615
▁anderen	-10.5616
wer	-10.5616
▁story	-10.5619
▁mensen	-10.5621
ように	-10.5623
▁جميع	-10.5627
▁tar	-10.5627
▁hic	-10.5627
ης	-10.5633
▁mare	-10.5636
▁съ	-10.5639
▁bro	-10.564
▁där	-10.5641
▁regione	-10.5644
条	-10.5648
ران	-10.5649
▁quod	-10.5649
▁stor	-10.5652
▁لان	-10.5654
▁طول	-10.5655
▁علی	-10.5655
バ	-10.5657
城	-10.5661
共	-10.5664
▁กา	-10.5669
zw	-10.567
▁paar	-10.5672
▁tid	-10.5672
挺	-10.5672
歌	-10.5675
ava	-10.5679
린	-10.5679
底	-10.5679
防	-10.568
пи	-10.568
深	-10.568
客	-10.5681
레	-10.5681
ō	-10.5681
▁bằng	-10.5681
▁ไว	-10.5681
卡	-10.5681
板	-10.5681
▁ٹام	-10.5682
▁สอง	-10.5682
▁два	-10.5684
▁χ	-10.5686
ہار	-10.5688
▁pessoas	-10.5688
▁bueno	-10.569
▁دون	-10.5692
工作	-10.5692
كون	-10.5693
▁여	-10.5696
▁불	-10.5696
▁stan	-10.5696
گاه	-10.57
▁งก	-10.57
▁इट	-10.5701
▁مردم	-10.5702
▁mü	-10.5702
▁καθ	-10.5703
▁cão	-10.5704
gul	-10.5712
lang	-10.5712
▁ingin	-10.5715
▁lässt	-10.5719
कर	-10.5723
라고	-10.5723
جو	-10.5724
าก	-10.5728
▁patri	-10.5731
جم	-10.5733
▁primera	-10.5734
▁tell	-10.5734
cam	-10.5737
▁인	-10.574
uf	-10.5747
也不	-10.5748
▁ளன	-10.5749
isch	-10.5754
rado	-10.5756
rac	-10.5756
jar	-10.5757
られ	-10.5758
▁plusieurs	-10.5759
▁üzerinde	-10.5759
▁μόνο	-10.5759
▁küçük	-10.5759
▁cầu	-10.576
▁gör	-10.576
▁toe	-10.5761
gas	-10.5763
▁पक	-10.5764
▁saa	-10.5765
▁kleine	-10.577
اض	-10.5771
▁doch	-10.5771
بق	-10.5771
▁κατά	-10.5771
▁mod	-10.5772
▁งข	-10.5773
inda	-10.5775
cis	-10.5778
▁nunca	-10.5779
سٹ	-10.5784
知道	-10.5786
▁otras	-10.5788
▁ډېر	-10.579
pas	-10.5794
ym	-10.5796
▁asta	-10.5799
▁وهي	-10.5799
▁mayor	-10.5807
▁टन	-10.5812
▁لت	-10.5812
何	-10.5814
▁अव	-10.5814
▁sí	-10.5815
▁μέ	-10.5818
قت	-10.5823
▁transport	-10.5823
▁wenig	-10.5824
sia	-10.5828
率	-10.583
▁name	-10.5833
▁이후	-10.5833
▁document	-10.5836
它	-10.5836
▁through	-10.5837
夫	-10.5837
около	-10.5837
2	-10.5837
▁lời	-10.5837
▁computer	-10.5837
▁پښتو	-10.5837
▁ہاں	-10.5838
▁hin	-10.5838
▁kişi	-10.5838
دخل	-10.5839
▁кон	-10.5839
▁quả	-10.5842
▁них	-10.5847
▁인간	-10.5847
▁sistema	-10.5849
akan	-10.585
▁นไป	-10.585
▁ยบ	-10.585
▁کرنا	-10.5852
作品	-10.5852
▁راه	-10.5854
▁ملل	-10.5855
하기	-10.5857
▁setelah	-10.5858
▁fix	-10.586
▁ปร	-10.5863
▁ذات	-10.5865
▁alt	-10.5866
▁pergi	-10.5866
▁hata	-10.5867
▁biri	-10.5868
んで	-10.5869
cur	-10.5871
▁bus	-10.5872
▁puis	-10.5876
▁انسان	-10.5878
留	-10.5887
äl	-10.5888
▁ur	-10.5891
лась	-10.5892
▁anni	-10.5893
ты	-10.5894
▁사람	-10.5895
hin	-10.5896
ръ	-10.5896
▁ek	-10.59
ille	-10.5902
▁ken	-10.5904
▁cup	-10.5906
▁就	-10.5907
▁ф	-10.5907
▁并	-10.5907
▁luz	-10.5908
▁cá	-10.5909
▁kh	-10.5915
ポ	-10.5915
公司	-10.5915
密	-10.5916
▁부족	-10.5916
cum	-10.5916
▁جائے	-10.5918
▁وه	-10.5918
▁välja	-10.5919
▁مدد	-10.5921
▁ابن	-10.5925
她	-10.5927
tru	-10.5932
ど	-10.5935
▁kết	-10.5936
سر	-10.5939
▁working	-10.594
▁خدا	-10.5941
ması	-10.5942
▁cd	-10.5944
▁än	-10.5947
vent	-10.5948
ès	-10.5948
▁maior	-10.5953
yor	-10.5957
▁தக	-10.5958
alt	-10.5959
طا	-10.596
▁اكثر	-10.5962
▁soort	-10.5963
ió	-10.5966
东	-10.5968
▁fal	-10.5969
▁เต	-10.5975
ていた	-10.5976
▁person	-10.5978
があり	-10.5978
▁ville	-10.5981
gno	-10.5986
実	-10.5988
▁ری	-10.5989
▁مقام	-10.5991
▁ent	-10.5992
▁يتم	-10.5992
▁otra	-10.5992
▁ind	-10.5993
▁fácil	-10.5993
記	-10.5995
愛	-10.5995
▁некоторы	-10.5995
▁แก	-10.5995
يږي	-10.5997
ismo	-10.5999
▁werde	-10.6
▁enough	-10.6003
ное	-10.6004
med	-10.6004
▁seul	-10.6006
▁δε	-10.6006
▁cual	-10.6014
▁hoc	-10.6014
gh	-10.6015
▁bil	-10.6015
dag	-10.6016
過	-10.6016
▁원	-10.6019
▁जल	-10.6022
▁آبادی	-10.6024
▁也	-10.6026
▁masa	-10.6027
▁معلومات	-10.6028
νο	-10.6029
igen	-10.6031
▁werk	-10.6032
▁turn	-10.6033
▁sera	-10.6035
ola	-10.6037
▁ре	-10.6043
彼	-10.6045
退	-10.6047
声	-10.6048
しても	-10.6049
▁روی	-10.6049
▁başka	-10.6049
▁fur	-10.605
▁นเด	-10.6051
▁duy	-10.6051
▁어	-10.6053
▁popular	-10.6054
々	-10.6054
mesi	-10.6055
▁الوقت	-10.6058
件	-10.6061
▁차	-10.6064
▁यन	-10.6064
▁months	-10.6067
▁grandes	-10.6069
▁cui	-10.6069
حد	-10.6071
جد	-10.6074
六	-10.6074
厚	-10.6074
爱	-10.6075
▁இய	-10.6075
▁sách	-10.6075
▁κάτι	-10.6075
▁next	-10.6076
▁standard	-10.6076
itu	-10.6078
▁tâm	-10.6078
▁mettre	-10.6085
▁kri	-10.6085
▁roll	-10.6085
▁matthews	-10.6088
▁دیکھ	-10.6088
▁ஐ	-10.609
▁trung	-10.6091
หว	-10.6096
▁içinde	-10.6096
▁français	-10.6097
rus	-10.6097
购买	-10.6098
eerd	-10.6103
tele	-10.6104
▁reco	-10.6112
▁gå	-10.6113
▁mucha	-10.6114
pri	-10.6114
▁цен	-10.6116
▁จจ	-10.6119
▁หลาย	-10.6121
یہ	-10.6126
▁tener	-10.6129
ello	-10.613
ката	-10.613
少し	-10.6131
ala	-10.6133
یب	-10.6135
ことが	-10.6135
▁उ	-10.6136
ผล	-10.614
たい	-10.6143
▁الط	-10.6145
▁वक	-10.6147
dik	-10.615
▁göre	-10.6153
gro	-10.6155
▁problème	-10.6156
▁vấn	-10.6156
▁आम	-10.6156
▁seorang	-10.6156
▁lên	-10.6156
▁utilisé	-10.6156
무	-10.6156
▁niveau	-10.6156
▁sababu	-10.6156
▁esperaba	-10.6157
▁gerçekten	-10.6157
▁دوسرے	-10.6159
▁ہوئی	-10.6161
▁ги	-10.6162
需要	-10.6164
lek	-10.6164
▁یاد	-10.6165
科	-10.6166
นตร	-10.6166
▁کړي	-10.6167
▁sterne	-10.6167
▁kati	-10.6172
ong	-10.6175
▁watch	-10.6177
mat	-10.618
▁работа	-10.6188
ologi	-10.6189
▁wake	-10.6199
買って	-10.6201
tica	-10.6201
kom	-10.6202
าบ	-10.6203
까지	-10.6204
▁今	-10.6204
▁بزرگ	-10.6207
bor	-10.6207
gne	-10.6209
isha	-10.6211
▁federal	-10.6213
▁كم	-10.6213
▁नव	-10.6214
▁три	-10.6215
▁这个	-10.6221
▁ante	-10.6221
ades	-10.6222
調	-10.6223
▁ژب	-10.6224
▁เบ	-10.6224
▁ven	-10.6225
开始	-10.6228
▁hol	-10.6234
交	-10.6235
▁eius	-10.6235
лось	-10.6236
▁sống	-10.6237
村	-10.6237
交換	-10.6237
▁tard	-10.6237
▁العديد	-10.6238
▁série	-10.6238
mektedir	-10.6239
▁estar	-10.6239
▁vendeur	-10.624
▁يوم	-10.6241
▁đồng	-10.6241
▁cer	-10.6241
▁betw	-10.6242
nza	-10.6243
▁يمكنك	-10.6246
▁ref	-10.6256
ガ	-10.6258
▁indonesia	-10.6259
نة	-10.626
▁dunia	-10.6269
洗	-10.6275
ske	-10.6277
cep	-10.6279
leme	-10.6282
▁modo	-10.6284
ează	-10.6284
国家	-10.6287
ορ	-10.6287
▁lake	-10.6287
στε	-10.6288
tado	-10.6293
▁اه	-10.6296
▁jam	-10.6297
▁کړ	-10.6299
食	-10.6299
▁توگ	-10.6301
▁강	-10.6306
ําเน	-10.6307
щи	-10.6312
▁clubs	-10.6313
▁syn	-10.6316
▁bland	-10.6317
案	-10.6318
dum	-10.6319
野	-10.6319
▁yardım	-10.6319
▁pack	-10.6319
码	-10.6319
尼	-10.6319
▁chuyện	-10.6319
▁gepubliceerd	-10.6319
▁téléphone	-10.6319
▁είχε	-10.6319
▁یقین	-10.6319
وک	-10.6319
▁phòng	-10.6319
▁puedo	-10.6319
▁ahora	-10.6319
▁그리고	-10.632
▁nơi	-10.6322
▁persone	-10.6322
▁тебе	-10.6322
▁vill	-10.6323
میٹر	-10.6325
▁ओर	-10.6325
غا	-10.6326
▁sim	-10.6328
▁றப	-10.6328
▁trois	-10.6331
อล	-10.6335
▁دوره	-10.6335
▁많	-10.6336
تو	-10.6336
▁merci	-10.6336
▁можете	-10.6337
▁ingen	-10.6338
▁محل	-10.6339
▁اش	-10.6339
▁bâ	-10.6342
или	-10.6342
▁お	-10.6343
▁남	-10.6345
▁acc	-10.6346
▁sinon	-10.6346
非	-10.635
▁nieuwe	-10.635
ij	-10.6355
▁sla	-10.6367
kla	-10.6371
cji	-10.6374
▁boy	-10.6375
すぐ	-10.6376
ιν	-10.6377
▁ض	-10.6381
▁الخ	-10.6382
だと思います	-10.6383
グ	-10.6386
破	-10.6387
ート	-10.6387
عب	-10.6388
▁orta	-10.6389
学生	-10.6389
nan	-10.639
▁구	-10.639
思	-10.6396
便	-10.6396
により	-10.6399
▁όχι	-10.6402
▁circa	-10.6402
支持	-10.6402
▁fr	-10.6402
▁två	-10.6403
基本	-10.6404
▁vara	-10.6404
▁juste	-10.6404
▁cat	-10.6404
ښت	-10.6405
오	-10.6405
ําค	-10.6408
세	-10.6411
αλ	-10.6411
▁बल	-10.6413
▁cidade	-10.6414
场	-10.6422
▁اسلام	-10.6424
▁मर	-10.6425
よう	-10.6425
ție	-10.6429
▁mau	-10.643
ในการ	-10.6431
▁poor	-10.6433
pit	-10.6434
tim	-10.6434
▁كې	-10.6434
▁fond	-10.6435
ٹی	-10.6435
▁सब	-10.6436
▁sou	-10.6438
的是	-10.6441
テ	-10.6443
▁volta	-10.6444
たら	-10.6446
造	-10.6446
▁조	-10.6447
▁위해	-10.6449
زده	-10.6453
▁τόσο	-10.6453
によって	-10.6454
▁augusti	-10.6456
▁관	-10.6457
▁پو	-10.646
▁انداز	-10.6468
算	-10.6471
حق	-10.6472
第一	-10.6473
▁recommend	-10.6476
▁stra	-10.6479
▁جمع	-10.648
げ	-10.648
び	-10.6481
▁pakistan	-10.6482
ман	-10.6482
▁آر	-10.6483
サイズ	-10.6483
战	-10.6484
语	-10.6484
▁ويكيبيديا	-10.6485
▁அழ	-10.6485
▁mycket	-10.6485
▁호드	-10.6485
▁अलग	-10.6486
▁perfectamente	-10.6487
▁sit	-10.6494
▁había	-10.6497
▁dentro	-10.65
าธ	-10.6501
str	-10.6503
inin	-10.6503
หญ	-10.6503
เปล	-10.6504
▁thật	-10.6504
▁room	-10.6504
arte	-10.6506
かった	-10.6509
مه	-10.651
ています	-10.6512
rah	-10.6516
期待	-10.6517
iae	-10.6519
▁분	-10.6521
ник	-10.6523
ях	-10.6526
sit	-10.6531
▁vir	-10.6532
▁これは	-10.6533
▁están	-10.6537
▁record	-10.6538
sun	-10.6544
tico	-10.6544
▁zor	-10.6549
▁days	-10.6551
久	-10.6558
kah	-10.6561
▁อต	-10.6566
强	-10.6569
wetenschappelijk	-10.6569
▁quốc	-10.6569
▁điểm	-10.6569
却	-10.6569
▁segunda	-10.6569
нето	-10.6569
▁kuhusu	-10.657
▁نیست	-10.657
▁short	-10.657
▁أكثر	-10.657
قرآن	-10.657
▁защото	-10.657
▁اعتقد	-10.6571
نده	-10.6573
▁रदर	-10.6574
▁эти	-10.6574
شو	-10.6576
▁ജ	-10.6578
▁บอ	-10.6579
▁ihn	-10.6584
▁vardır	-10.6588
それ	-10.6588
ay	-10.659
dd	-10.6591
uto	-10.6596
▁сме	-10.6599
▁р	-10.6599
iendo	-10.6602
▁قانون	-10.6607
▁partie	-10.6608
gang	-10.6609
▁stay	-10.661
▁mail	-10.6611
▁진	-10.6615
▁contact	-10.6618
رك	-10.6622
▁один	-10.6625
▁días	-10.6625
▁dom	-10.6628
▁الغ	-10.6628
▁review	-10.6629
ию	-10.6635
▁mata	-10.6637
总	-10.6638
ய	-10.6638
▁central	-10.6638
▁रच	-10.6642
▁medio	-10.6643
ną	-10.6644
alis	-10.6646
▁ah	-10.6653
橋	-10.6654
兵	-10.6654
▁beskrev	-10.6654
▁rồi	-10.6654
▁familjen	-10.6654
▁mwaka	-10.6655
▁هستند	-10.6655
شتمل	-10.6656
私	-10.6656
▁đổi	-10.6658
imi	-10.6658
▁stark	-10.6665
▁corre	-10.6671
速度	-10.6672
とても	-10.6673
▁estados	-10.6673
종	-10.6673
фи	-10.6675
atur	-10.6675
▁group	-10.6676
▁اساس	-10.6676
ष	-10.6676
▁lain	-10.6676
ương	-10.6677
▁olmak	-10.6678
▁unos	-10.6689
▁stat	-10.6697
▁causa	-10.6699
▁톰이	-10.67
▁passe	-10.6701
ville	-10.6702
▁bla	-10.6706
aja	-10.6716
สร	-10.6718
▁há	-10.6719
▁pega	-10.6722
▁banyak	-10.6723
▁poli	-10.6724
▁แบบ	-10.6724
▁कन	-10.6724
zin	-10.6725
já	-10.6726
nym	-10.6732
▁dog	-10.6733
uni	-10.6733
▁czy	-10.6735
▁κάνει	-10.6735
gin	-10.6735
然	-10.6737
▁disappointed	-10.6739
▁имам	-10.674
▁schlecht	-10.6741
▁miaka	-10.6741
▁ring	-10.6742
▁nước	-10.6742
▁pur	-10.6745
▁نفس	-10.6748
eta	-10.6749
▁every	-10.6751
▁information	-10.6757
cal	-10.6759
▁रश	-10.6761
▁ăn	-10.6762
斯大林	-10.6763
▁cole	-10.6765
▁경	-10.6765
ыми	-10.6765
rad	-10.677
▁нескольк	-10.6774
▁पद	-10.6775
▁並	-10.6781
提	-10.6782
▁حص	-10.6782
▁pense	-10.6788
▁سپ	-10.6796
▁गल	-10.6799
▁estre	-10.6799
tore	-10.6811
▁yaptı	-10.6815
▁går	-10.6817
▁pole	-10.6818
应该	-10.682
▁چل	-10.6822
ろ	-10.6825
씨	-10.6825
▁εκεί	-10.6825
害	-10.6825
▁اليوم	-10.6826
▁ник	-10.6826
▁dünya	-10.6826
▁compré	-10.6827
▁тебя	-10.6827
之前	-10.6828
▁μετά	-10.6828
▁expected	-10.6829
▁एव	-10.683
▁حسنا	-10.683
しい	-10.6831
вляется	-10.6831
ella	-10.6834
tà	-10.6838
▁edil	-10.6838
▁lleva	-10.684
▁benim	-10.6844
▁kim	-10.6845
cos	-10.685
▁hoe	-10.6852
ол	-10.6853
لم	-10.6854
▁शक	-10.6855
miş	-10.6855
▁kl	-10.6857
▁caja	-10.6859
▁ऑ	-10.6859
ful	-10.6863
ประ	-10.6866
いる	-10.687
▁sex	-10.6872
wy	-10.6873
▁против	-10.6875
▁انجام	-10.6879
tü	-10.688
ист	-10.688
▁شمار	-10.6881
▁کن	-10.6883
▁pesa	-10.6883
▁februari	-10.6885
عد	-10.6889
▁yol	-10.6895
γκ	-10.6898
ран	-10.6898
▁bou	-10.6898
log	-10.6904
▁ret	-10.6906
▁ди	-10.6907
tine	-10.6908
▁خارج	-10.6908
▁μπ	-10.6909
ετε	-10.691
程	-10.691
果	-10.691
nne	-10.6911
党	-10.6912
眼	-10.6912
▁microsoft	-10.6912
▁släktet	-10.6912
▁आस	-10.6912
▁அண	-10.6912
▁இன	-10.6912
八	-10.6912
傷	-10.6912
▁المتحدة	-10.6912
▁geliefert	-10.6913
▁xe	-10.6914
▁حدود	-10.6914
▁buch	-10.6915
▁costrui	-10.6915
▁结果	-10.6916
となった	-10.6917
▁ubi	-10.6919
▁ټول	-10.6922
▁mihi	-10.6927
▁상	-10.6932
▁fille	-10.6934
mina	-10.6934
▁geldig	-10.6938
▁ดการ	-10.6941
▁plaats	-10.6942
미	-10.6942
건	-10.6943
▁ชาย	-10.6948
られた	-10.6948
▁genel	-10.6952
llen	-10.6952
残	-10.6962
جي	-10.6967
▁رنگ	-10.6967
ост	-10.6969
改	-10.6969
▁बस	-10.6972
ich	-10.6972
▁bru	-10.6975
▁اول	-10.6979
ги	-10.6979
▁وب	-10.6982
よく	-10.6983
▁igual	-10.6984
▁تاريخ	-10.6988
eva	-10.6993
باد	-10.6993
▁exist	-10.6995
▁tele	-10.6997
戦	-10.6998
ネ	-10.6999
待	-10.7
木	-10.7
ไทย	-10.7
▁wikimedia	-10.7
▁αυτά	-10.7
▁mới	-10.7
▁tamaño	-10.7
klimat	-10.7
▁primeira	-10.7001
▁उच	-10.7001
▁นว	-10.7002
▁её	-10.7004
▁sound	-10.7011
在年	-10.7012
▁mesmo	-10.7012
▁hülle	-10.7012
زی	-10.7013
▁งแต	-10.7015
▁mac	-10.7017
elt	-10.7018
▁între	-10.7018
▁liber	-10.7019
▁miss	-10.702
ளர	-10.7023
▁sabe	-10.7023
▁บท	-10.7024
maktadır	-10.7029
▁papa	-10.7029
тра	-10.703
▁นร	-10.7037
▁cla	-10.7037
mor	-10.7039
▁br	-10.704
▁stars	-10.7042
▁یکی	-10.7042
rzy	-10.7049
▁сам	-10.705
▁nome	-10.7051
غر	-10.7052
ства	-10.7059
学校	-10.7059
員	-10.7064
▁są	-10.7065
▁ฝ	-10.7065
▁vite	-10.7068
zia	-10.707
▁broke	-10.707
▁goed	-10.7073
ном	-10.7075
نم	-10.7076
▁内容	-10.7079
▁fer	-10.7085
▁العالم	-10.7087
巴	-10.7087
권	-10.7088
哈	-10.7089
▁invånare	-10.7089
▁plástico	-10.7089
▁selbst	-10.7089
▁happy	-10.7089
寄	-10.7089
対応	-10.7089
▁nhiên	-10.7089
▁одна	-10.7089
تش	-10.7089
▁wäre	-10.7091
▁هنا	-10.7094
angan	-10.7102
▁norte	-10.7104
uzi	-10.7105
sis	-10.7115
への	-10.7116
▁대한	-10.7118
▁lé	-10.7121
▁日本	-10.7124
▁sasa	-10.7128
민	-10.7128
▁ملک	-10.7132
超	-10.7132
▁skal	-10.7135
sto	-10.7135
▁laut	-10.7136
โต	-10.7139
▁سور	-10.714
▁tip	-10.7141
▁poder	-10.7146
ック	-10.7146
▁所以	-10.7147
▁once	-10.7148
▁sm	-10.7148
erna	-10.7149
▁fact	-10.7151
нс	-10.7154
شي	-10.7154
▁hav	-10.7155
▁مار	-10.7155
ıl	-10.7156
ени	-10.716
▁된다	-10.7161
▁australia	-10.7162
▁worth	-10.7163
▁vier	-10.7165
lerinde	-10.7166
▁شوی	-10.7167
bie	-10.7169
▁ну	-10.7169
▁زیر	-10.7173
議	-10.7176
一样	-10.7177
管	-10.7177
▁هیچ	-10.7178
토	-10.7178
政府	-10.7178
松	-10.7178
▁giới	-10.7178
▁آغاز	-10.7178
▁함께	-10.7178
▁nhìn	-10.7178
马	-10.7178
▁três	-10.7178
▁michael	-10.7178
ych	-10.7178
ないので	-10.7179
▁ainsi	-10.7179
▁عالم	-10.7182
ικό	-10.7183
▁چا	-10.7185
▁wewe	-10.7186
▁dir	-10.7187
kat	-10.7189
▁libre	-10.7193
▁veces	-10.7195
още	-10.7196
▁اللہ	-10.7197
▁solide	-10.7197
även	-10.72
▁during	-10.7203
▁ε	-10.7205
▁seine	-10.7206
▁casi	-10.7207
▁prae	-10.7208
▁politic	-10.7214
gus	-10.7215
▁интерес	-10.7217
▁alan	-10.7218
▁пар	-10.7218
ndan	-10.722
ئي	-10.7221
くて	-10.7223
やすい	-10.7226
ngu	-10.7228
▁和	-10.7232
▁råd	-10.7233
▁نفر	-10.7236
しています	-10.7237
arak	-10.724
折	-10.7242
▁두	-10.7242
▁сказал	-10.7246
したら	-10.7249
rai	-10.725
▁semana	-10.7251
▁tym	-10.7251
小说	-10.7254
kken	-10.7254
▁درج	-10.7254
モ	-10.7256
▁series	-10.7257
เสร	-10.7258
▁جان	-10.7258
itate	-10.726
ær	-10.7263
子供	-10.7264
کس	-10.7266
持ち	-10.7268
千	-10.7268
▁tiếp	-10.7268
冷	-10.7268
电影	-10.7268
中央	-10.7268
▁đường	-10.7268
▁primeiro	-10.7269
▁という	-10.7269
رغم	-10.727
▁тре	-10.7271
▁khó	-10.7272
det	-10.7275
▁เซ	-10.7277
▁مورد	-10.7279
▁lund	-10.728
▁ему	-10.7281
▁ry	-10.7282
▁raz	-10.7282
رته	-10.7284
▁ста	-10.7286
▁ano	-10.7287
▁서	-10.7291
col	-10.7292
▁quid	-10.7294
▁ยก	-10.7294
とか	-10.7295
بار	-10.7298
▁constitu	-10.7298
▁stu	-10.7299
▁ин	-10.7306
산	-10.7309
故事	-10.7309
▁商品	-10.731
製品	-10.7311
rre	-10.7313
▁hans	-10.7314
قط	-10.7314
▁berg	-10.7316
uh	-10.7316
차	-10.7317
เคร	-10.7317
▁blo	-10.7317
▁animal	-10.7317
ച	-10.7318
▁ec	-10.7319
isme	-10.732
▁falta	-10.7323
▁مي	-10.7324
şi	-10.7329
▁siria	-10.7331
itas	-10.7331
▁fac	-10.7331
▁mea	-10.7331
▁две	-10.7332
▁فيها	-10.7334
nh	-10.7335
▁ye	-10.7341
▁bara	-10.7341
ilor	-10.7341
官	-10.7342
系	-10.7342
پر	-10.7344
▁grund	-10.7344
▁sü	-10.7346
しない	-10.7347
natus	-10.7347
rü	-10.7351
uga	-10.7351
ена	-10.7351
வந	-10.7352
らない	-10.7352
liği	-10.7354
нт	-10.7355
男	-10.7356
▁समझ	-10.7356
袋	-10.7356
降	-10.7357
阿	-10.7358
▁dịch	-10.7359
▁hội	-10.7359
▁weiß	-10.7359
▁impossible	-10.7359
▁attention	-10.7359
▁رہی	-10.7359
▁gereja	-10.7359
▁trả	-10.736
▁louis	-10.736
▁charles	-10.736
▁όλα	-10.736
▁run	-10.7361
▁spo	-10.7361
▁البابا	-10.7362
▁burada	-10.7362
▁lors	-10.7363
▁ญหา	-10.7364
▁سفر	-10.7364
▁aurai	-10.7364
▁einmal	-10.7365
▁cele	-10.7366
▁حول	-10.7367
▁looking	-10.7374
▁vii	-10.7375
▁กท	-10.7376
▁ประส	-10.7378
▁utiliser	-10.738
付け	-10.7381
▁alta	-10.7387
▁adam	-10.7389
残念です	-10.7392
ică	-10.7394
thay	-10.7395
▁xem	-10.7395
不到	-10.7396
有些	-10.7396
▁own	-10.7397
▁اضاف	-10.7399
ario	-10.7404
tique	-10.7405
งาน	-10.7406
лко	-10.7407
심	-10.741
ஞ	-10.7412
난	-10.7412
생	-10.7413
▁εξ	-10.7415
▁vend	-10.742
▁nor	-10.7421
έν	-10.7422
バス	-10.7422
عاد	-10.743
zza	-10.7431
▁นอย	-10.7435
▁bill	-10.7436
▁สต	-10.7436
▁亚马逊	-10.7436
▁کلو	-10.7441
пл	-10.7443
▁let	-10.7445
พร	-10.7445
▁使用	-10.7448
鞋	-10.7449
ture	-10.745
级	-10.745
末	-10.7451
▁siempre	-10.7451
操作	-10.7451
▁години	-10.7451
成功	-10.7451
による	-10.7451
teil	-10.7455
ore	-10.7455
▁ดต	-10.7458
▁بايد	-10.7461
ظهر	-10.7462
▁уже	-10.7463
▁într	-10.7463
▁personne	-10.7464
عمل	-10.7464
▁包装	-10.7464
▁tried	-10.7466
熱	-10.7466
不会	-10.7467
▁united	-10.7467
▁还	-10.7468
▁aucun	-10.7469
▁când	-10.7472
อก	-10.7473
▁கழ	-10.7475
▁importante	-10.7476
▁sea	-10.7479
▁همچن	-10.748
每	-10.7484
▁aldı	-10.7485
daki	-10.7487
楽	-10.7488
부터	-10.7489
▁جون	-10.7492
▁etmek	-10.7492
▁हरण	-10.7495
دى	-10.7498
▁वप	-10.7498
▁அவ	-10.7498
ター	-10.75
今	-10.75
нов	-10.7501
mıştır	-10.7502
يان	-10.7504
▁κα	-10.7504
試	-10.7505
▁ανα	-10.7507
让	-10.7507
hiệu	-10.7508
▁onde	-10.7514
сть	-10.7518
▁연	-10.7519
▁cute	-10.7522
▁bem	-10.7522
▁journal	-10.7525
konna	-10.7527
vor	-10.7527
▁कहत	-10.7529
inden	-10.7529
▁ฮ	-10.7531
▁معلوم	-10.7533
▁gri	-10.7533
枚	-10.7534
▁حوال	-10.7534
整	-10.7535
бор	-10.754
画	-10.7541
금	-10.7542
합	-10.7543
亚	-10.7543
细	-10.7543
▁например	-10.7543
▁excellent	-10.7543
▁açık	-10.7544
▁class	-10.7544
اتو	-10.7544
▁pertama	-10.7545
▁función	-10.7545
▁کمی	-10.7546
▁اثر	-10.7546
▁کنم	-10.7548
▁bonito	-10.7549
زا	-10.7551
▁centro	-10.7551
▁milion	-10.7553
▁etiam	-10.7555
▁purchased	-10.7555
erunt	-10.7557
▁शर	-10.7557
fel	-10.7558
ことを	-10.756
イン	-10.7562
ными	-10.757
▁mobil	-10.7572
ർ	-10.7575
▁hotel	-10.7575
▁port	-10.7577
ute	-10.7579
▁خوا	-10.7579
▁बदल	-10.758
zel	-10.7586
产品	-10.7586
siz	-10.759
ione	-10.7592
ケ	-10.7594
▁dopo	-10.7602
liku	-10.7602
ød	-10.7604
دت	-10.7606
▁rangers	-10.7608
▁movie	-10.7609
▁montre	-10.761
▁gene	-10.7613
▁каза	-10.7614
▁برخ	-10.7615
ț	-10.7615
▁แห	-10.7616
lara	-10.7618
gia	-10.7619
▁план	-10.7619
▁кол	-10.7621
▁现在	-10.7625
▁لك	-10.7625
起来	-10.7626
lev	-10.763
▁아서스	-10.7635
▁mam	-10.7635
ボタン	-10.7637
▁eigentlich	-10.7637
▁science	-10.7637
▁thường	-10.7637
▁कस	-10.7638
▁secret	-10.7638
▁ภาพ	-10.7638
▁زيات	-10.7639
하였	-10.7639
▁finale	-10.764
υρ	-10.764
▁deve	-10.764
▁pol	-10.7641
▁listade	-10.7642
▁underart	-10.7642
▁genial	-10.7642
▁دم	-10.7645
▁meget	-10.7646
फ	-10.7646
get	-10.7649
▁oc	-10.765
引	-10.765
完	-10.7653
▁ർ	-10.7656
▁sonst	-10.7657
▁받	-10.7657
▁ماه	-10.7659
는데	-10.7659
av	-10.7662
▁fle	-10.7663
▁بالا	-10.7664
います	-10.7667
mann	-10.7669
我们	-10.7671
▁우	-10.7678
一本	-10.7682
ком	-10.7684
▁รวม	-10.7685
รา	-10.7687
pres	-10.769
▁والی	-10.7691
▁special	-10.7695
▁zwar	-10.7696
cle	-10.7697
▁cảm	-10.7697
cat	-10.7699
▁당	-10.7699
iş	-10.77
قع	-10.77
ذهب	-10.7702
▁nell	-10.7702
방	-10.7702
유	-10.7703
▁பற	-10.7703
▁นํา	-10.7703
▁japan	-10.7707
▁alguna	-10.7707
▁因为	-10.7708
▁key	-10.7709
▁hus	-10.771
▁انهم	-10.7712
rot	-10.7713
▁चर	-10.7715
▁bol	-10.7718
▁cứ	-10.7718
▁déçue	-10.7721
bul	-10.7723
▁नर	-10.7724
除	-10.7725
すること	-10.7729
土	-10.773
▁والا	-10.773
油	-10.7731
يش	-10.7731
▁écran	-10.7731
▁толкова	-10.7731
▁önemli	-10.7731
▁също	-10.7731
▁една	-10.7731
▁کېږي	-10.7732
▁mua	-10.7732
▁robot	-10.7732
▁அளவ	-10.7735
hir	-10.7736
▁wish	-10.7736
▁tì	-10.7737
άρ	-10.7738
▁علیہ	-10.7741
▁refer	-10.7743
▁tim	-10.7744
pad	-10.7744
خانه	-10.7745
▁bile	-10.7745
▁act	-10.7746
ets	-10.7746
▁hund	-10.7747
▁hum	-10.775
قر	-10.775
▁makes	-10.775
ated	-10.7751
eks	-10.7753
▁passa	-10.7756
▁vide	-10.7758
▁suas	-10.7758
▁arte	-10.7761
▁hã	-10.7761
程度	-10.7764
ξε	-10.7766
▁tempor	-10.7768
▁pea	-10.7769
▁있	-10.777
▁nota	-10.7771
▁cro	-10.7773
▁آهن	-10.7774
▁mtu	-10.7774
stan	-10.7776
นาย	-10.7777
stand	-10.778
nej	-10.7784
iera	-10.7786
form	-10.7786
▁yap	-10.7787
▁계	-10.7787
▁знаю	-10.7788
▁ตอนน	-10.7789
اي	-10.779
▁haber	-10.7793
rang	-10.7796
▁aos	-10.7804
▁termin	-10.7805
num	-10.7807
▁kuna	-10.7807
になって	-10.7809
▁ram	-10.781
▁سید	-10.7813
▁gla	-10.7814
▁install	-10.7815
▁hanya	-10.7817
tada	-10.7817
返	-10.7825
難	-10.7826
kvadratkilometer	-10.7826
▁rápido	-10.7826
余	-10.7826
▁livré	-10.7827
ولايات	-10.7827
▁القرن	-10.7828
▁これ	-10.783
▁sangat	-10.783
▁musik	-10.783
▁rapidement	-10.783
▁conform	-10.7831
▁mång	-10.7833
تنا	-10.7834
rme	-10.7835
▁ona	-10.7835
中心	-10.7836
ping	-10.7838
▁าร	-10.7839
▁சட	-10.7839
تن	-10.7842
▁tenía	-10.7842
▁elles	-10.7844
تك	-10.7845
▁primo	-10.7849
▁marque	-10.7854
▁مست	-10.7856
یش	-10.7858
vam	-10.7858
であった	-10.786
▁것이	-10.7864
レビュー	-10.7864
▁night	-10.7864
▁قام	-10.7866
bin	-10.7866
▁열	-10.7866
▁도	-10.7868
▁lib	-10.7869
▁cri	-10.7869
لف	-10.7871
sında	-10.7871
ของค	-10.7873
▁each	-10.7873
▁agua	-10.7873
phi	-10.7873
▁भव	-10.7874
▁type	-10.7875
▁stad	-10.7875
रल	-10.7876
▁งาน	-10.7876
▁सद	-10.7876
▁கக	-10.7877
▁aga	-10.7878
▁stop	-10.7887
رش	-10.7888
▁prop	-10.7891
tır	-10.7891
▁لها	-10.7891
eira	-10.7892
▁nummer	-10.7893
持	-10.7894
▁acest	-10.7895
ions	-10.7895
▁autor	-10.79
ธรรม	-10.79
타	-10.7901
반	-10.7902
ട	-10.7902
▁folie	-10.7903
▁gew	-10.7903
▁منذ	-10.7905
▁match	-10.7906
▁pequeño	-10.7909
▁اود	-10.7911
э	-10.7913
▁hy	-10.7914
▁mana	-10.7914
价	-10.7916
▁connect	-10.7917
▁خوب	-10.7918
chten	-10.7919
▁gleich	-10.7919
▁فرانس	-10.7921
▁november	-10.7922
▁τώρα	-10.7922
旧	-10.7922
評価	-10.7922
▁biệt	-10.7923
落ち	-10.7923
▁ocean	-10.7924
▁protection	-10.7925
▁single	-10.7926
▁kul	-10.7927
▁กงาน	-10.7931
burg	-10.7932
ıcı	-10.7934
ίας	-10.7934
▁produ	-10.7934
▁ise	-10.7936
▁until	-10.7941
▁kali	-10.7944
▁mult	-10.7945
▁оста	-10.7945
▁如果	-10.7946
▁kg	-10.7946
▁تعلق	-10.7949
▁proc	-10.7954
▁unidos	-10.7955
ικ	-10.7955
▁نشان	-10.796
▁bed	-10.796
sini	-10.7961
several	-10.7967
▁siku	-10.7967
▁cita	-10.7968
▁continua	-10.797
كو	-10.7977
زو	-10.7977
▁ever	-10.7982
▁تل	-10.7982
▁manque	-10.7985
▁bazı	-10.7989
▁بازی	-10.799
لې	-10.7996
▁á	-10.7996
▁απλ	-10.7998
▁loro	-10.7999
探	-10.8
aş	-10.8001
▁அர	-10.8003
되어	-10.8005
년	-10.8005
▁ton	-10.8005
▁harus	-10.8006
▁carga	-10.8009
قة	-10.801
ië	-10.8013
นา	-10.8014
ہیں	-10.8016
▁tren	-10.8017
成为	-10.8017
ฤ	-10.8018
背	-10.8018
루	-10.8019
吸	-10.8019
干	-10.8019
略	-10.8019
설	-10.802
▁chủ	-10.802
▁perfekt	-10.802
▁xuất	-10.802
▁ഇത	-10.802
업	-10.802
▁ακόμα	-10.802
▁έτσι	-10.802
▁software	-10.802
▁loopt	-10.802
▁sahip	-10.8021
▁mad	-10.8021
▁number	-10.8021
▁إذا	-10.8022
▁morgen	-10.8026
中的	-10.8029
▁ഭ	-10.8031
주의	-10.8032
▁eua	-10.8036
▁भर	-10.8037
▁бъде	-10.8037
▁soft	-10.8039
れた	-10.8039
▁بها	-10.804
▁pouv	-10.8042
▁august	-10.8048
▁personal	-10.8049
▁univers	-10.8051
东西	-10.8052
ระด	-10.8053
ρά	-10.8054
▁nomina	-10.8054
▁ле	-10.8059
ہر	-10.806
نية	-10.806
▁مرة	-10.8061
rig	-10.8065
▁اله	-10.8067
▁ediyor	-10.8078
sol	-10.8079
▁compre	-10.8079
▁camp	-10.8081
▁aceast	-10.8082
▁കള	-10.8087
话	-10.8089
▁wear	-10.8093
ladı	-10.8094
lade	-10.8094
day	-10.8098
▁force	-10.8099
边	-10.8103
rà	-10.8104
왕	-10.8105
▁mali	-10.8107
▁bah	-10.8109
است	-10.8112
ایا	-10.8113
역	-10.8114
ぶ	-10.8115
素	-10.8116
隊	-10.8117
▁ول	-10.8118
夜	-10.8118
▁trị	-10.8118
▁είσαι	-10.8118
▁ஏற	-10.8118
▁toàn	-10.8118
▁nuevo	-10.8118
▁dette	-10.8118
電源	-10.8118
固定	-10.8118
▁uzun	-10.8118
▁vẫ	-10.8118
▁zit	-10.812
▁county	-10.812
▁इक	-10.8122
ging	-10.8123
لت	-10.8123
▁彼女は	-10.8124
▁molto	-10.8126
έλ	-10.8127
▁نیو	-10.8129
ελ	-10.813
▁bene	-10.813
▁hui	-10.8132
حصول	-10.8133
▁перв	-10.8135
苏联	-10.8135
ã	-10.8137
あり	-10.8138
られる	-10.8139
μο	-10.8142
试	-10.8142
▁thing	-10.8143
али	-10.8143
▁station	-10.8143
colo	-10.8147
到了	-10.8148
▁آنها	-10.8151
▁mind	-10.8158
▁صدی	-10.8161
▁بيا	-10.8163
▁гор	-10.8174
ชาต	-10.8176
▁poner	-10.8183
ٹر	-10.8184
die	-10.8187
▁دل	-10.8189
▁мл	-10.819
▁organiza	-10.819
兩	-10.8191
าว	-10.8192
عا	-10.8193
داشته	-10.8194
不要	-10.8197
▁ऊ	-10.8198
สาว	-10.8198
▁کله	-10.82
eer	-10.8206
所有	-10.8206
ване	-10.8207
영	-10.8208
史	-10.8209
▁명	-10.8209
내	-10.821
▁gave	-10.8211
▁söyledi	-10.8213
نز	-10.8215
としては	-10.8215
▁anne	-10.8216
▁erwartet	-10.8217
▁governo	-10.8217
▁आज	-10.8217
▁लगभग	-10.8217
▁mặt	-10.8217
▁company	-10.8217
接続	-10.8217
认为	-10.8217
▁hiç	-10.8217
▁feira	-10.8219
▁انگریزی	-10.822
▁definite	-10.8223
▁کړې	-10.8224
ase	-10.8227
eel	-10.8228
利用	-10.8229
▁wochen	-10.8229
▁capital	-10.823
▁ora	-10.8235
▁narcisa	-10.8237
速	-10.8238
▁sor	-10.8238
ix	-10.8238
▁baru	-10.824
▁pensa	-10.8242
▁πάνω	-10.8244
war	-10.8245
slag	-10.8247
мо	-10.8247
套	-10.8248
اسې	-10.8249
ред	-10.8249
▁ஹ	-10.8252
すぐに	-10.8254
ภาษา	-10.8255
حة	-10.8256
rii	-10.8257
▁çalışma	-10.8257
▁metal	-10.8258
rlo	-10.8261
▁amerikaans	-10.8264
▁jack	-10.8265
σι	-10.8268
▁tü	-10.8269
ハ	-10.827
▁tienen	-10.8271
▁月	-10.8274
tting	-10.8275
▁male	-10.8276
مع	-10.8277
▁porte	-10.8279
▁미	-10.828
しっかり	-10.8282
ñ	-10.8288
▁andra	-10.8293
▁gro	-10.8294
▁pris	-10.8297
▁لديه	-10.8298
dat	-10.8298
pak	-10.8299
▁väl	-10.8299
▁pool	-10.83
▁منځ	-10.83
▁质量	-10.8303
▁έναν	-10.8304
انا	-10.8305
▁dun	-10.8306
後に	-10.8307
▁full	-10.8308
▁verre	-10.8309
▁pessoa	-10.8312
▁حضرت	-10.8312
중	-10.8313
들을	-10.8313
单	-10.8315
dığı	-10.8315
▁본	-10.8315
▁hak	-10.8315
ирован	-10.8316
役	-10.8316
ヒ	-10.8316
š	-10.8317
▁provincia	-10.8317
▁tạo	-10.8317
▁tập	-10.8317
贵	-10.8317
馬	-10.8317
▁یعنی	-10.8317
▁أخرى	-10.8317
▁provins	-10.8317
▁นทาง	-10.8317
▁nouveau	-10.8317
▁반	-10.8317
เตอร	-10.8317
カバー	-10.8318
▁doden	-10.832
▁ث	-10.8321
▁fut	-10.8323
▁eski	-10.8324
▁armas	-10.8327
▁departamento	-10.8328
▁arrived	-10.8328
▁gerne	-10.8331
▁started	-10.8332
▁catch	-10.8334
▁camera	-10.8335
asih	-10.8339
ering	-10.8339
▁سنگ	-10.8339
▁kun	-10.8341
▁걸	-10.8342
ロー	-10.8343
高い	-10.8343
สน	-10.8346
并	-10.8346
▁สม	-10.8347
لب	-10.8348
▁ضد	-10.8354
员	-10.8355
▁المت	-10.8357
▁tinha	-10.8358
▁nacional	-10.836
على	-10.8363
▁пе	-10.8364
▁알	-10.8367
lum	-10.8368
ティ	-10.8369
▁tarde	-10.8374
▁front	-10.8376
mmer	-10.8377
vient	-10.8382
▁sedan	-10.8384
▁student	-10.8393
▁못	-10.8394
一下	-10.8395
止	-10.8395
ties	-10.8395
nun	-10.8397
▁طلب	-10.84
▁devam	-10.8402
▁bord	-10.8404
进	-10.8407
band	-10.8408
▁picture	-10.8409
▁quản	-10.8412
门	-10.8413
▁வன	-10.8416
작	-10.8416
視	-10.8416
실	-10.8417
选	-10.8417
можно	-10.8417
政治	-10.8418
▁december	-10.8418
▁داعش	-10.8418
給	-10.8418
▁نزدیک	-10.8418
▁retour	-10.8418
▁üç	-10.8418
tôt	-10.8418
▁pet	-10.8419
▁فلم	-10.842
▁没	-10.8423
▁บสน	-10.8423
▁tetap	-10.8425
stu	-10.8426
▁yapma	-10.8427
▁παρα	-10.8427
▁få	-10.8428
ますが	-10.8432
wn	-10.8433
▁جاتی	-10.8434
▁அரச	-10.8435
bl	-10.8436
شم	-10.844
▁hilo	-10.8443
▁novo	-10.8443
▁ولا	-10.8445
нию	-10.8447
▁puedes	-10.8448
▁فعل	-10.8449
مس	-10.8455
▁olen	-10.8459
▁داشت	-10.8462
ical	-10.8466
できない	-10.8466
▁homme	-10.8467
▁left	-10.8468
▁fort	-10.847
▁डर	-10.8472
▁آخر	-10.8481
▁مصر	-10.8482
pel	-10.8484
ๆ	-10.8484
▁खन	-10.8485
發	-10.8485
デザイン	-10.8487
▁غرب	-10.8491
▁раздел	-10.8492
ỗi	-10.8493
▁ในป	-10.8496
▁major	-10.8498
▁orden	-10.8502
miento	-10.8507
▁año	-10.8513
▁میل	-10.8515
tivo	-10.8515
▁ran	-10.8515
▁повече	-10.8515
وية	-10.8519
风	-10.8519
望	-10.8519
查	-10.8519
프	-10.852
▁pamoja	-10.852
▁σπίτι	-10.852
▁сделать	-10.852
▁างไร	-10.852
脱	-10.852
든	-10.852
석	-10.852
スマホ	-10.852
▁waktu	-10.852
▁display	-10.852
注意	-10.852
生活	-10.852
▁trẻ	-10.8521
▁다시	-10.8521
▁package	-10.8521
效果	-10.8521
▁dafür	-10.8522
▁sob	-10.8523
▁இதன	-10.8523
▁นการ	-10.8523
取り	-10.8523
▁บการ	-10.8526
▁dinero	-10.8526
▁еще	-10.8527
▁ٹی	-10.8528
▁مجلس	-10.8528
▁ianuarii	-10.8529
▁nii	-10.8531
▁attend	-10.8532
▁stern	-10.8533
▁schnelle	-10.8534
бра	-10.8536
▁استخدام	-10.8537
▁ломоносова	-10.8538
▁grup	-10.8539
▁преди	-10.854
▁phát	-10.8543
▁천	-10.8548
▁erat	-10.8549
ること	-10.8551
ина	-10.8552
▁مطابق	-10.8552
▁list	-10.8554
ника	-10.8554
▁sio	-10.8554
▁üks	-10.8555
▁tamam	-10.8556
しましたが	-10.8556
良かったです	-10.8556
失望	-10.8556
作者	-10.8557
вод	-10.8559
▁sehen	-10.8561
▁fie	-10.8562
▁ஞ	-10.8563
▁exp	-10.8564
▁toute	-10.8566
فس	-10.8566
▁drei	-10.8568
▁mortos	-10.8569
sim	-10.8571
▁سان	-10.8572
til	-10.8572
▁ersten	-10.8573
▁content	-10.8574
cta	-10.8574
▁км	-10.8577
れて	-10.8579
ете	-10.8582
▁உட	-10.8586
▁onlar	-10.8588
▁fare	-10.8588
apud	-10.8588
▁小	-10.859
▁extrem	-10.8592
erek	-10.8593
могут	-10.8597
να	-10.8601
▁بس	-10.8602
▁déc	-10.8606
▁ساخت	-10.8611
▁ба	-10.8613
▁بخش	-10.8614
入り	-10.8614
란	-10.8615
場合	-10.8617
▁بك	-10.8619
精	-10.8621
▁semua	-10.8621
pendant	-10.8621
母	-10.8622
▁california	-10.8623
▁difficile	-10.8623
▁everything	-10.8623
▁thiết	-10.8623
▁çünkü	-10.8623
▁είπε	-10.8623
▁تشکیل	-10.8623
▁فإن	-10.8623
▁православн	-10.8623
▁ہزار	-10.8623
▁farbe	-10.8623
▁tiêu	-10.8624
▁adapta	-10.8624
▁kinh	-10.8625
▁tua	-10.8627
▁ilgili	-10.8629
об	-10.8629
▁mela	-10.863
▁baik	-10.863
▁내가	-10.863
▁eks	-10.8631
▁bekommen	-10.8632
안	-10.8632
▁тук	-10.8632
▁بما	-10.8632
▁друг	-10.8633
▁rub	-10.8633
通り	-10.8634
▁네	-10.8639
▁celui	-10.8641
▁กส	-10.8641
richt	-10.8641
▁line	-10.8643
▁ดข	-10.8644
▁gö	-10.8645
مبر	-10.8646
▁então	-10.8648
तर	-10.865
selt	-10.865
▁doen	-10.8651
▁hit	-10.8652
▁alia	-10.8653
▁denne	-10.8653
▁mere	-10.8653
رى	-10.8655
▁selama	-10.8656
▁trebuie	-10.8657
▁dro	-10.8657
▁игра	-10.8661
ông	-10.8661
ไหม	-10.8661
ご	-10.8664
ик	-10.8676
бо	-10.8676
▁علي	-10.8677
▁sand	-10.8677
▁nä	-10.8678
ум	-10.8683
hương	-10.8683
▁الو	-10.8684
▁années	-10.8685
▁entrega	-10.8695
▁ла	-10.8695
▁monde	-10.8698
تف	-10.8706
over	-10.8713
▁cultura	-10.8713
maa	-10.8716
なり	-10.8717
款	-10.872
▁id	-10.8722
▁horas	-10.8724
注	-10.8725
気に	-10.8726
慢	-10.8727
령	-10.8727
▁lịch	-10.8727
▁ngoài	-10.8727
▁phố	-10.8727
책	-10.8727
▁bên	-10.8727
確認	-10.8727
▁حقوق	-10.8727
▁میان	-10.8728
▁superior	-10.8728
▁năng	-10.8729
medi	-10.8729
▁mí	-10.873
▁اسی	-10.873
▁njia	-10.8731
▁hệ	-10.8731
▁vest	-10.8732
▁wasser	-10.8734
▁posso	-10.8736
wor	-10.8736
▁faz	-10.8737
▁കണ	-10.8737
mont	-10.8739
▁banda	-10.8741
hì	-10.8744
▁isn	-10.8745
一個	-10.8747
▁นๆ	-10.8748
▁너	-10.8751
購入した	-10.8757
▁سنة	-10.8757
最高	-10.8759
▁größe	-10.8759
▁mei	-10.8759
▁consider	-10.8761
qué	-10.8761
رن	-10.8761
▁net	-10.8761
อเม	-10.8762
со	-10.8763
▁سه	-10.8764
ец	-10.8764
▁crea	-10.8765
硬	-10.8768
▁cento	-10.8768
fanya	-10.8769
かも	-10.8769
صل	-10.8769
wel	-10.8769
▁sang	-10.8771
だけで	-10.8772
▁complete	-10.8773
ομ	-10.8773
▁festival	-10.8778
▁ين	-10.8779
▁sci	-10.8783
▁informa	-10.8783
文字	-10.8791
ова	-10.8792
▁จน	-10.8792
▁cr	-10.8792
hed	-10.8794
ヤ	-10.8796
音が	-10.8798
це	-10.88
▁try	-10.8807
方が	-10.8808
طل	-10.8809
ически	-10.8812
▁wal	-10.8814
▁abd	-10.8823
แรก	-10.8825
τό	-10.8831
▁kay	-10.8831
처	-10.8832
질	-10.8832
▁könnte	-10.8832
▁oktober	-10.8832
從	-10.8832
▁şimdi	-10.8832
步	-10.8832
▁다른	-10.8832
unu	-10.8833
▁clean	-10.8833
shalb	-10.8833
美國	-10.8833
▁chức	-10.8835
▁jour	-10.8835
大変	-10.8835
ín	-10.8836
▁center	-10.8837
▁heute	-10.8837
법	-10.8848
快递	-10.8849
▁väga	-10.8851
▁которо	-10.8853
▁bri	-10.8857
اش	-10.8863
way	-10.8866
test	-10.8869
▁verdi	-10.887
bile	-10.8872
лив	-10.8875
▁अग	-10.8877
▁sel	-10.8878
▁جد	-10.888
▁انها	-10.8883
iza	-10.8885
▁знам	-10.8886
cción	-10.8888
▁ஷ	-10.8888
▁ഹ	-10.8888
▁इल	-10.8892
zon	-10.8894
▁dollari	-10.8894
▁mida	-10.8896
▁شب	-10.8899
üm	-10.8901
使う	-10.8904
larında	-10.8904
▁อมา	-10.8909
تل	-10.891
▁fils	-10.8913
質	-10.8914
▁text	-10.8916
▁mang	-10.8923
▁други	-10.8923
悪	-10.8924
我的	-10.8924
يال	-10.8925
diği	-10.8927
▁inf	-10.8931
▁costa	-10.8933
وز	-10.8934
nă	-10.8936
封	-10.8937
▁close	-10.8937
变	-10.8938
▁milhões	-10.8939
▁également	-10.8939
▁мэри	-10.8939
▁together	-10.8939
▁군단	-10.8939
▁shirt	-10.8939
▁washington	-10.8939
▁شرکت	-10.8939
▁ليلى	-10.8939
▁오크	-10.8939
▁хорошо	-10.8939
▁foar	-10.894
▁semble	-10.894
▁kabul	-10.894
act	-10.8941
▁nini	-10.8941
했어	-10.8942
▁джон	-10.8942
▁ใคร	-10.8943
评价	-10.8945
kke	-10.8945
teur	-10.8946
▁mess	-10.8947
▁حصہ	-10.8948
▁صح	-10.8948
必要	-10.8951
▁eles	-10.8952
▁mart	-10.8953
▁बज	-10.8954
現	-10.8957
력	-10.896
▁includ	-10.8961
▁دس	-10.8962
개	-10.8962
▁toll	-10.8963
연	-10.8965
oir	-10.8967
人的	-10.8968
▁ډ	-10.8969
enia	-10.897
▁گرم	-10.8977
▁aqui	-10.898
▁process	-10.8981
▁дом	-10.8982
▁sinh	-10.8986
för	-10.8989
▁walk	-10.899
▁organ	-10.899
▁以前	-10.8993
row	-10.8998
▁آی	-10.8999
дер	-10.9
▁มน	-10.9001
▁alguma	-10.9003
▁예	-10.9004
tia	-10.9005
ями	-10.9005
κο	-10.9011
cus	-10.9011
不同	-10.9014
ปล	-10.9016
antes	-10.9019
東京	-10.9021
akt	-10.9022
▁pay	-10.9023
atus	-10.9024
ではない	-10.9024
elor	-10.9027
▁تلك	-10.9028
úp	-10.9032
▁والد	-10.9032
▁bomb	-10.9033
▁دهد	-10.9034
一次	-10.9034
مدينة	-10.9035
▁بنیاد	-10.9035
▁ลง	-10.9035
看到	-10.9036
▁ภ	-10.9037
▁bila	-10.9038
▁สน	-10.9039
▁maison	-10.9039
掉	-10.904
▁eden	-10.9041
all	-10.9042
▁yerin	-10.9043
▁correct	-10.9044
ワ	-10.9044
▁quanto	-10.9045
列	-10.9045
워	-10.9046
▁trọng	-10.9046
▁المعلومات	-10.9046
▁себя	-10.9046
▁ٹھیک	-10.9046
▁easily	-10.9046
服务	-10.9046
▁nghiệp	-10.9046
▁aún	-10.9047
▁någon	-10.9047
と思う	-10.905
▁پسند	-10.905
▁کافی	-10.905
▁gen	-10.905
▁realmente	-10.905
ษ	-10.9051
▁gầ	-10.9051
▁king	-10.9053
▁mô	-10.9053
曾	-10.9053
▁effet	-10.9056
手机	-10.9058
▁piano	-10.9059
本体	-10.906
▁blu	-10.9067
▁nama	-10.9068
▁haut	-10.9068
اندازه	-10.907
▁พระ	-10.907
▁chiến	-10.9073
اری	-10.9077
▁billig	-10.9078
这本书	-10.9078
质	-10.9079
▁hä	-10.908
▁طريق	-10.9081
rist	-10.9081
▁zona	-10.9082
ピ	-10.9083
▁آج	-10.9087
▁ഴ	-10.9087
であり	-10.9088
ivi	-10.909
ир	-10.9092
▁çıkar	-10.9092
▁вам	-10.9092
▁발	-10.9094
▁cl	-10.9096
▁koos	-10.9098
▁สาม	-10.9098
▁away	-10.9099
▁rus	-10.91
▁الز	-10.9101
▁되었다	-10.9103
حل	-10.9105
▁anima	-10.9106
▁kesk	-10.9108
انے	-10.9109
▁probleme	-10.9111
▁عند	-10.9113
▁بج	-10.9116
lot	-10.9118
cara	-10.9119
endi	-10.912
▁scha	-10.9121
sını	-10.9123
ٹن	-10.9125
▁κάθε	-10.9126
مال	-10.913
بن	-10.9133
▁كبير	-10.9135
zar	-10.9135
达	-10.9141
▁jolie	-10.9142
eme	-10.9142
▁மண	-10.9143
▁pic	-10.9143
▁مج	-10.9144
สว	-10.9147
çe	-10.9148
▁law	-10.9148
連	-10.9154
▁한국	-10.9154
报	-10.9154
ден	-10.9155
則	-10.9155
▁thị	-10.9155
▁ஆர	-10.9155
河	-10.9155
細	-10.9155
▁kõik	-10.9155
▁تعلیم	-10.9155
▁melhor	-10.9155
▁포르투갈어	-10.9155
▁ansonst	-10.9156
▁गण	-10.9156
▁gir	-10.9156
▁kubwa	-10.9156
▁sólo	-10.9157
▁가장	-10.9157
这种	-10.9158
▁när	-10.9158
▁قدیم	-10.9158
نب	-10.9158
▁род	-10.9158
▁nime	-10.9159
▁مطلب	-10.916
▁hỏi	-10.916
▁aver	-10.9161
jal	-10.9161
▁tür	-10.9166
iter	-10.9167
ира	-10.9167
▁почти	-10.9169
list	-10.9169
▁walikuwa	-10.917
▁schwer	-10.9173
▁lá	-10.9178
▁रब	-10.9178
▁اد	-10.9182
▁coque	-10.9182
the	-10.9185
ൻ	-10.9188
▁change	-10.919
rent	-10.9193
داد	-10.9195
这么	-10.9195
▁ون	-10.9196
▁فقد	-10.9197
▁apaka	-10.9199
▁award	-10.9199
▁punkt	-10.9199
▁κατα	-10.9202
▁교	-10.9203
ost	-10.9203
som	-10.9206
▁martin	-10.9209
▁important	-10.9213
安い	-10.9217
▁eran	-10.9217
英	-10.9218
ının	-10.9219
quer	-10.922
▁verb	-10.9225
anza	-10.9226
мер	-10.9228
こちら	-10.923
▁mesa	-10.9232
▁والت	-10.9238
▁الد	-10.9238
itud	-10.9239
印刷	-10.9239
▁tahu	-10.9247
▁devlet	-10.9247
вал	-10.9247
▁obra	-10.925
▁pie	-10.925
▁τ	-10.9252
тель	-10.9253
さん	-10.9254
였	-10.9254
▁spiel	-10.9257
pus	-10.9257
ește	-10.926
▁تام	-10.9261
▁kü	-10.9262
วน	-10.9262
wie	-10.9263
▁gao	-10.9263
▁semi	-10.9264
纸	-10.9264
病	-10.9264
ディ	-10.9264
該	-10.9265
约	-10.9265
▁verarbeitung	-10.9265
▁đúng	-10.9265
▁наистина	-10.9265
▁إلا	-10.9265
▁يلوستون	-10.9265
▁இண	-10.9265
▁같은	-10.9265
听	-10.9265
呢	-10.9265
▁ايضا	-10.9265
▁sáng	-10.9265
小さい	-10.9265
▁água	-10.9265
ําแห	-10.9265
▁farklı	-10.9265
▁هنر	-10.9265
▁당시	-10.9266
▁μην	-10.9266
▁καλά	-10.9266
▁그들	-10.9266
▁kepada	-10.9266
бу	-10.9267
▁لاندې	-10.9267
tem	-10.9267
▁गठ	-10.9268
▁style	-10.9268
ești	-10.9268
要求	-10.9268
▁issue	-10.927
バー	-10.927
ther	-10.9271
▁smart	-10.9272
作り	-10.9272
▁لذا	-10.9272
ള	-10.9276
▁หม	-10.9276
ungen	-10.9282
▁visita	-10.9283
▁направи	-10.9284
▁شوې	-10.929
▁îm	-10.9291
▁donne	-10.9292
▁بې	-10.9292
换	-10.9293
▁sampai	-10.9298
▁equipo	-10.9299
▁primer	-10.93
hor	-10.9301
ecek	-10.9302
jan	-10.9302
sine	-10.9307
тор	-10.9308
arum	-10.9311
▁cast	-10.9311
▁चक	-10.9312
வற	-10.9314
acak	-10.9316
▁economic	-10.9318
▁frase	-10.9318
iano	-10.932
▁통	-10.9325
▁ใหญ	-10.9328
▁wali	-10.9328
gere	-10.933
▁sistem	-10.933
よりも	-10.9331
وند	-10.9334
▁前	-10.9336
▁กต	-10.9339
▁space	-10.9341
▁disc	-10.9342
bis	-10.9344
yer	-10.9347
ği	-10.9348
μένο	-10.9349
▁marche	-10.935
▁เย	-10.9354
▁பண	-10.9354
▁ketik	-10.9355
だろう	-10.9356
دة	-10.9356
▁bio	-10.9358
▁cher	-10.9358
▁send	-10.9364
▁قابل	-10.9368
▁زیاد	-10.9368
▁خوش	-10.9372
зе	-10.9373
tão	-10.9375
▁rumah	-10.9375
広	-10.9376
▁церкви	-10.9376
占	-10.9376
▁ordnung	-10.9376
▁توسط	-10.9376
笔	-10.9376
评论	-10.9376
▁rev	-10.9376
▁empresa	-10.9376
▁plastik	-10.9376
▁nhỏ	-10.9376
▁मदद	-10.9376
建议	-10.9376
▁două	-10.9376
管理	-10.9376
便宜	-10.9377
自然	-10.9377
▁trata	-10.9379
▁cualquier	-10.9379
▁तम	-10.9379
▁少し	-10.9379
вою	-10.9381
▁从	-10.9382
вен	-10.9383
▁saison	-10.9383
قرب	-10.9383
▁jusqu	-10.9384
▁sw	-10.9386
▁bereits	-10.9392
علم	-10.9392
▁half	-10.9392
▁잘	-10.9392
dam	-10.9393
▁एग	-10.9394
▁marie	-10.9395
只有	-10.9396
пла	-10.9397
ость	-10.9397
▁uk	-10.9399
▁problemas	-10.9399
▁المع	-10.94
▁방	-10.9407
▁må	-10.9408
▁ellos	-10.9409
▁nữa	-10.9409
نٹ	-10.941
มาจาก	-10.9412
▁배	-10.9412
카	-10.9417
▁mol	-10.9418
파	-10.9418
don	-10.942
ё	-10.942
mark	-10.9421
▁กซ	-10.9421
▁fly	-10.9423
quanto	-10.9424
bes	-10.9425
▁دریا	-10.9426
▁west	-10.9427
سته	-10.9428
سف	-10.9429
ως	-10.9433
lli	-10.9434
▁pap	-10.9435
▁figure	-10.9435
anse	-10.9437
▁entra	-10.9439
のみ	-10.9439
▁رود	-10.944
uti	-10.944
▁dù	-10.9444
▁ดว	-10.9445
▁تق	-10.9446
▁văn	-10.9448
▁minutes	-10.9448
ục	-10.9451
▁کس	-10.9452
▁bilgi	-10.9453
▁ame	-10.9454
weise	-10.9454
يست	-10.9457
การต	-10.9457
▁бил	-10.9457
▁صاحب	-10.9459
▁แน	-10.9462
ップ	-10.9462
ตาม	-10.9466
lere	-10.9469
▁ese	-10.947
αι	-10.947
▁къде	-10.9473
▁uniti	-10.9473
عي	-10.9474
▁ڈی	-10.9476
▁creo	-10.9477
▁вид	-10.9478
開始	-10.9479
▁store	-10.9479
▁görev	-10.9482
▁사용	-10.9485
推	-10.9486
ână	-10.9486
ペ	-10.9487
往	-10.9487
복	-10.9487
劇	-10.9488
▁democracy	-10.9488
▁hạn	-10.9488
▁nasdaq	-10.9488
▁research	-10.9488
▁sản	-10.9488
▁ayrıca	-10.9489
路線	-10.9489
▁எட	-10.949
▁diz	-10.949
▁minister	-10.9491
▁مغرب	-10.9492
▁maka	-10.9492
жен	-10.9493
▁vene	-10.9493
▁വര	-10.9494
▁있었다	-10.9499
▁vast	-10.95
▁chiế	-10.9502
▁lado	-10.9503
切れ	-10.9506
▁spelen	-10.9507
пис	-10.9508
▁اوبو	-10.9508
тся	-10.9509
▁rei	-10.951
▁kinder	-10.951
▁ros	-10.9511
▁جر	-10.9511
عيد	-10.9514
▁وړ	-10.9514
▁cassé	-10.9515
▁کیون	-10.9517
▁ൾ	-10.9519
▁يت	-10.952
▁poat	-10.9521
ιών	-10.9524
▁gang	-10.9528
▁ระบบ	-10.9529
▁só	-10.953
▁昭和年	-10.9531
▁าส	-10.9533
▁nom	-10.9533
▁held	-10.9534
▁нов	-10.9534
即	-10.9535
▁minha	-10.9535
▁trang	-10.9536
▁ملی	-10.9536
▁touch	-10.9537
▁பன	-10.9538
اذ	-10.954
▁area	-10.9546
▁양	-10.9547
owy	-10.9548
▁hair	-10.9549
nus	-10.9551
ในป	-10.9553
▁celle	-10.9554
▁sina	-10.9555
▁कड	-10.9555
▁شوند	-10.9556
trag	-10.9564
رل	-10.9565
ule	-10.9565
ут	-10.9575
▁outros	-10.9575
quam	-10.9577
▁何	-10.9578
▁име	-10.9579
ность	-10.958
▁คล	-10.9583
ela	-10.9583
用了	-10.9583
ړي	-10.9584
▁permet	-10.9587
ラー	-10.9589
▁administra	-10.959
▁lampe	-10.96
治	-10.96
照	-10.9601
▁passen	-10.9601
讲	-10.9601
那么	-10.9601
均	-10.9601
衣	-10.9601
耳	-10.9601
连	-10.9601
易	-10.9601
翻	-10.9602
內	-10.9602
▁chưa	-10.9602
▁mwisho	-10.9602
▁многи	-10.9602
▁street	-10.9602
▁kommt	-10.9602
▁trotzdem	-10.9602
▁arrivé	-10.9602
▁pernah	-10.9602
▁argentina	-10.9602
▁ساعت	-10.9602
▁đánh	-10.9603
▁área	-10.9603
▁μπορείτε	-10.9603
▁추	-10.9603
▁okay	-10.9603
▁habari	-10.9603
▁those	-10.9603
▁tenido	-10.9605
▁branco	-10.9605
▁kabel	-10.9606
▁でも	-10.9606
▁tế	-10.9607
اؤ	-10.9607
ещё	-10.9609
▁quo	-10.9611
▁baby	-10.9613
▁تت	-10.9613
▁roto	-10.9614
種	-10.9615
▁thức	-10.9615
ците	-10.9616
▁gram	-10.9617
▁chaque	-10.9619
▁eneo	-10.962
▁زر	-10.9621
▁daar	-10.9623
▁iii	-10.9624
▁وضع	-10.9627
itatibus	-10.9627
ppe	-10.9628
▁indica	-10.9634
▁tage	-10.9634
▁whi	-10.9636
▁chí	-10.9636
czas	-10.9637
iam	-10.9638
most	-10.9638
าท	-10.9642
▁العام	-10.9643
▁쓰	-10.9643
aram	-10.9643
▁생	-10.9645
ளவ	-10.9646
▁zuid	-10.9646
ità	-10.9647
간	-10.9647
▁dich	-10.965
弱	-10.965
▁novi	-10.9652
▁iar	-10.9653
병	-10.9653
▁korea	-10.9654
ago	-10.9655
▁вопрос	-10.9655
une	-10.9656
τι	-10.9657
▁pri	-10.9658
方法	-10.966
▁tor	-10.9663
ov	-10.9663
stein	-10.9663
σω	-10.9666
ograph	-10.9666
ของฉ	-10.9667
▁italia	-10.9667
▁fel	-10.9667
▁파	-10.9673
ван	-10.9677
▁ستار	-10.9682
ек	-10.9683
年代	-10.9687
▁سل	-10.9687
tab	-10.9689
ém	-10.9689
üz	-10.969
▁unit	-10.9691
سان	-10.9691
▁لے	-10.9691
▁ky	-10.9692
▁conc	-10.9693
чу	-10.9694
▁หมาย	-10.9695
▁تین	-10.9697
▁المر	-10.9699
ência	-10.9705
ца	-10.9707
▁초	-10.9708
ship	-10.9708
间	-10.9708
هر	-10.9708
されて	-10.9709
▁کوه	-10.9709
▁present	-10.971
▁period	-10.9711
▁faci	-10.9712
▁قتل	-10.9712
拿	-10.9712
存在	-10.9714
절	-10.9714
源	-10.9715
門	-10.9716
義	-10.9716
▁numero	-10.9716
點	-10.9717
▁already	-10.9717
▁ஆன	-10.9717
夏	-10.9717
▁birlikte	-10.9717
▁برابر	-10.9717
▁always	-10.9717
▁nothing	-10.9717
▁ฐบาล	-10.9717
▁iemand	-10.9717
▁antara	-10.9717
▁nasıl	-10.9717
വ	-10.9718
画面	-10.9718
▁konnte	-10.9719
▁möchte	-10.972
▁south	-10.972
▁الناس	-10.9723
▁कट	-10.9723
ował	-10.9725
▁pedido	-10.9725
رج	-10.9725
▁gustado	-10.9725
▁mieux	-10.9727
مل	-10.9728
tanto	-10.9729
▁อค	-10.9729
▁希望	-10.973
▁salah	-10.9731
ına	-10.9733
でしたが	-10.9734
ります	-10.9735
▁within	-10.9737
رام	-10.9742
▁私の	-10.9743
▁monte	-10.9743
ذكر	-10.9743
데	-10.9745
▁پول	-10.9746
▁нам	-10.9748
▁morti	-10.9749
▁لاس	-10.9749
▁flo	-10.975
▁machen	-10.975
▁pärast	-10.9754
ちょっと	-10.9755
▁дока	-10.9757
▁sco	-10.9758
▁sali	-10.976
▁新	-10.976
والي	-10.976
▁пока	-10.9762
▁太	-10.9763
▁llega	-10.9763
sına	-10.9763
▁ball	-10.9765
找	-10.9771
▁william	-10.9772
ใต	-10.9773
他们	-10.9775
▁явля	-10.9775
ace	-10.9776
並	-10.9776
▁γι	-10.9779
▁민	-10.9781
▁میری	-10.9783
▁beide	-10.9783
▁genom	-10.9784
▁πλ	-10.9786
ости	-10.9789
tout	-10.9789
▁must	-10.979
pul	-10.979
▁six	-10.9792
▁civil	-10.9794
際	-10.9795
ford	-10.9796
▁kazan	-10.9797
มเด	-10.9797
▁سات	-10.9799
▁منطقة	-10.98
▁斯大林	-10.98
▁فکر	-10.9802
还没	-10.9802
eiro	-10.9803
▁relativ	-10.9804
▁bun	-10.9808
▁comun	-10.9809
▁nato	-10.9809
消	-10.981
▁seit	-10.9812
▁pak	-10.9812
▁تبدیل	-10.9812
▁cortar	-10.9816
niu	-10.9817
タイプ	-10.9817
▁scr	-10.982
▁以	-10.9823
▁mange	-10.9823
يكن	-10.9825
вър	-10.9827
าส	-10.9828
製	-10.9829
當	-10.983
▁خلاف	-10.9831
青	-10.9831
费	-10.9833
右	-10.9833
威	-10.9833
车	-10.9833
副	-10.9833
▁anything	-10.9833
▁verarbeitet	-10.9833
▁불타는	-10.9833
▁epocha	-10.9833
▁год	-10.9833
学习	-10.9833
kol	-10.9833
▁хотел	-10.9833
▁terräng	-10.9833
▁vendedor	-10.9833
▁گروه	-10.9834
▁hea	-10.9834
根本	-10.9834
发货	-10.9834
満足	-10.9834
マキ	-10.9835
▁مد	-10.9835
▁последн	-10.9836
国内	-10.9836
▁orbitali	-10.9837
▁دلیل	-10.9838
▁rode	-10.9839
▁özel	-10.9839
ivo	-10.9839
▁might	-10.984
▁السلام	-10.9841
▁prise	-10.9842
▁προσ	-10.9845
▁hell	-10.9846
▁alte	-10.9846
กลาง	-10.9847
▁сега	-10.9848
文化	-10.9849
▁مگر	-10.9851
▁artist	-10.9852
▁returned	-10.9852
▁having	-10.9852
पड	-10.9853
หม	-10.9854
▁considera	-10.9854
▁lid	-10.9857
phy	-10.9858
第二	-10.9858
بال	-10.9859
味道	-10.986
▁chez	-10.986
这样	-10.9861
▁santa	-10.9863
ści	-10.9863
heit	-10.9864
lina	-10.9867
▁travail	-10.9869
nca	-10.9869
以前	-10.9869
▁russia	-10.987
给我	-10.9871
▁कप	-10.9871
▁glo	-10.9874
вали	-10.9876
▁不知道	-10.9877
▁rom	-10.988
自己的	-10.9881
สามารถ	-10.9882
▁انتخاب	-10.9884
▁call	-10.9884
重要	-10.9886
▁audi	-10.989
▁probabl	-10.9891
▁مسلمان	-10.9891
thi	-10.9891
fon	-10.9892
▁قطع	-10.9898
رتب	-10.9898
使え	-10.9898
▁tea	-10.9899
gă	-10.99
▁وع	-10.9903
上的	-10.9903
▁صف	-10.9903
▁امام	-10.9904
▁amerikan	-10.9904
eau	-10.9905
▁เคร	-10.9908
状態	-10.9908
▁dune	-10.9911
▁شعر	-10.9912
कत	-10.9914
▁бел	-10.9914
▁อบ	-10.9915
▁할	-10.9916
▁uhr	-10.9923
▁யன	-10.9924
liga	-10.9924
रक	-10.9925
存	-10.9925
▁งจาก	-10.9926
▁امریک	-10.9926
▁moet	-10.9927
▁gebrauch	-10.9929
мор	-10.9933
นํา	-10.9934
▁purchase	-10.9936
▁morte	-10.9936
▁news	-10.9938
rul	-10.9938
适合	-10.9942
▁dalla	-10.9943
usque	-10.9943
▁hala	-10.9943
▁vario	-10.9946
故	-10.9948
zwa	-10.9948
活	-10.9949
该	-10.9949
ارة	-10.995
両	-10.995
ギ	-10.995
른	-10.995
دم	-10.995
결	-10.9951
▁frank	-10.9951
雨	-10.9951
剧	-10.9951
頃	-10.9951
급	-10.9951
▁appareil	-10.9951
▁kemudian	-10.9951
▁único	-10.9951
▁đặt	-10.9951
▁لحاظ	-10.9951
▁때문에	-10.9951
พยายาม	-10.9951
▁family	-10.9951
萬	-10.9951
▁jorden	-10.9951
▁kiể	-10.9951
設定	-10.9951
▁global	-10.9951
について	-10.9951
▁مزید	-10.9952
▁مشرق	-10.9952
▁erst	-10.9953
▁chose	-10.9954
lice	-10.9954
eid	-10.9954
uza	-10.9954
▁angenehm	-10.9954
▁contro	-10.9955
▁времени	-10.9955
▁comfortable	-10.9955
▁tä	-10.9956
drag	-10.9957
▁tính	-10.9957
があった	-10.9958
▁งๆ	-10.996
▁hvis	-10.996
▁عبر	-10.9963
▁four	-10.9963
▁อท	-10.9965
▁tibi	-10.9968
▁huis	-10.9968
iko	-10.9969
▁bos	-10.9972
▁بیا	-10.9974
▁visto	-10.9976
kenal	-10.9977
▁استاد	-10.998
▁mọ	-10.9982
▁أنت	-10.9982
▁game	-10.9986
难	-10.9986
人民	-10.9986
ус	-10.9986
โม	-10.9987
▁مجموعه	-10.9988
考え	-10.9989
ں	-10.9991
▁非常	-10.9993
▁kit	-10.9997
لين	-10.9998
月日	-10.9998
主要	-10.9999
と思って	-10.9999
▁cio	-11.0001
én	-11.0003
▁ori	-11.0007
łem	-11.0011
لس	-11.0014
▁عرض	-11.0015
▁aime	-11.0017
▁میرا	-11.0022
rut	-11.0022
▁lassen	-11.0023
พล	-11.0023
hat	-11.0023
namun	-11.0024
ations	-11.0025
uko	-11.0025
▁programa	-11.0026
زه	-11.0027
ایل	-11.0028
▁چھ	-11.0037
off	-11.0039
▁وس	-11.0039
假	-11.0041
روس	-11.0044
▁groupe	-11.0046
▁able	-11.0046
▁situ	-11.0048
▁vent	-11.005
めて	-11.0054
▁terre	-11.0055
▁أحد	-11.0056
になりました	-11.0058
▁человек	-11.0059
▁منطق	-11.0059
▁word	-11.0061
▁rot	-11.0063
gio	-11.0063
▁مز	-11.0066
▁bent	-11.0067
▁suka	-11.0068
ih	-11.0068
計	-11.0068
ぎ	-11.0069
술	-11.0069
판	-11.0069
▁padre	-11.007
포	-11.007
赤	-11.007
遠	-11.007
▁emballage	-11.007
▁điện	-11.007
▁νομίζω	-11.007
職	-11.007
▁zone	-11.007
▁시작	-11.007
▁комиссии	-11.0071
▁klar	-11.0071
方式	-11.0071
▁foundation	-11.0072
▁ndani	-11.0073
特别	-11.0074
▁error	-11.0074
▁ബ	-11.0074
方面	-11.0075
▁carte	-11.0075
食べ	-11.008
sinde	-11.0081
▁hecho	-11.0081
▁ประเทศ	-11.0082
▁نامه	-11.0082
▁tijd	-11.0083
▁กษ	-11.0084
▁things	-11.0084
▁mengi	-11.0084
▁sedang	-11.0085
▁george	-11.0089
▁utan	-11.0092
▁میر	-11.0093
▁نورو	-11.0093
▁sirve	-11.0101
فض	-11.0103
bido	-11.0106
ίες	-11.0107
else	-11.0107
ее	-11.0108
▁นพ	-11.0108
▁حقا	-11.0109
▁arab	-11.011
ख	-11.0113
▁bonita	-11.0115
erat	-11.0119
▁anche	-11.0119
▁prime	-11.012
▁halten	-11.0121
▁gan	-11.0123
▁노	-11.0126
▁gato	-11.0127
▁rob	-11.0129
▁लड	-11.013
สาย	-11.0133
▁yapı	-11.0133
fund	-11.0137
kę	-11.0139
cula	-11.0141
からの	-11.0141
▁neve	-11.0143
elli	-11.0143
写真	-11.0145
良かった	-11.0146
▁المن	-11.0147
▁trei	-11.0148
成為	-11.015
ونکي	-11.0154
pis	-11.0156
▁هند	-11.0157
▁закон	-11.0158
▁rück	-11.0158
▁مرد	-11.016
tsu	-11.016
▁сто	-11.0162
▁kế	-11.0162
▁vardı	-11.0163
เกล	-11.0168
▁อด	-11.0172
▁scho	-11.0174
▁بیان	-11.0174
電池	-11.0176
▁พบ	-11.0177
part	-11.0178
λογ	-11.0178
▁forme	-11.0181
▁ولی	-11.0182
▁стр	-11.0186
例	-11.0188
▁조선	-11.0189
nego	-11.0189
停	-11.019
联系	-11.019
激	-11.019
entes	-11.019
ประธาน	-11.019
▁móvil	-11.019
▁yüksek	-11.019
▁ξέρω	-11.019
ケーブル	-11.019
岁	-11.019
红	-11.019
▁similar	-11.019
▁επίσης	-11.019
▁زيري	-11.019
▁plastique	-11.019
▁particular	-11.019
▁انگلیس	-11.0191
活動	-11.0191
▁brown	-11.0191
▁cuenta	-11.0191
여	-11.0191
▁transfer	-11.0191
illo	-11.0192
▁overall	-11.0192
▁situation	-11.0195
▁ange	-11.0195
lea	-11.0195
▁kuni	-11.0197
▁gras	-11.0197
▁شمس	-11.0197
▁assim	-11.0199
▁spesi	-11.02
▁кор	-11.02
▁ア	-11.0201
▁couleur	-11.0202
里面	-11.0202
▁ญญา	-11.0203
rant	-11.0205
gua	-11.0206
tina	-11.0207
ать	-11.0207
▁اسم	-11.0208
と思いました	-11.0213
える	-11.0214
▁سیاسی	-11.0216
iku	-11.0216
▁واحدة	-11.0219
เพลง	-11.0224
不知道	-11.0225
างว	-11.0227
▁vas	-11.0231
▁particip	-11.0232
▁atrav	-11.0233
▁fru	-11.0234
คด	-11.0235
▁month	-11.0236
pass	-11.0238
▁dix	-11.024
▁bass	-11.0241
tano	-11.0241
▁joli	-11.0242
▁最	-11.0242
にある	-11.0243
良	-11.0248
คํา	-11.025
▁بند	-11.025
หย	-11.0252
▁ยร	-11.0253
▁vári	-11.0254
▁longer	-11.0257
▁چار	-11.0258
▁ơ	-11.0258
▁नस	-11.026
▁done	-11.0262
▁ایسا	-11.0264
imento	-11.0269
▁πα	-11.0271
▁虽然	-11.0275
▁court	-11.0276
▁arva	-11.0276
▁موز	-11.0277
aine	-11.0278
▁planet	-11.0284
▁خورشیدی	-11.0284
ارات	-11.0287
▁ทํางาน	-11.0287
reich	-11.0289
▁rece	-11.0289
었	-11.0289
δα	-11.029
ตา	-11.029
部分が	-11.0292
ск	-11.0292
star	-11.0293
▁batterie	-11.0296
lf	-11.0296
▁ray	-11.0299
ında	-11.03
öö	-11.0301
могат	-11.0305
ヶ月	-11.0305
▁kauf	-11.0306
▁อาจ	-11.0307
بيع	-11.0309
命	-11.031
儿	-11.031
結	-11.0311
hangi	-11.0312
调	-11.0312
维	-11.0312
苦	-11.0312
暗	-11.0312
▁example	-11.0312
▁hospital	-11.0312
▁vực	-11.0312
守	-11.0312
▁language	-11.0312
▁اروپا	-11.0312
▁خواهد	-11.0312
塔	-11.0312
県	-11.0312
▁sympa	-11.0312
▁café	-11.0312
▁güzel	-11.0312
▁mówi	-11.0312
▁مانند	-11.0312
严重	-11.0312
▁lúc	-11.0313
▁frente	-11.0313
代表	-11.0313
▁هغو	-11.0313
▁biraz	-11.0313
▁london	-11.0313
上げ	-11.0314
▁insect	-11.0314
打开	-11.0314
▁parfaitement	-11.0314
▁slut	-11.0315
ทรง	-11.0315
▁johnson	-11.0315
▁должны	-11.0316
▁hot	-11.0318
▁ră	-11.0318
tranh	-11.0318
▁других	-11.0318
▁chica	-11.0322
▁ยด	-11.0325
▁πολλ	-11.0325
ใหม	-11.0326
tõ	-11.0327
าเป	-11.0329
▁possible	-11.033
▁lite	-11.0331
▁market	-11.0332
▁militar	-11.0332
▁ciudad	-11.0332
▁bulan	-11.0339
▁palju	-11.034
▁kap	-11.0343
そうです	-11.0344
ён	-11.0344
▁څو	-11.0345
ประชา	-11.0346
▁ابو	-11.0347
▁rad	-11.0347
▁مدرس	-11.0348
▁resultado	-11.0348
يون	-11.035
▁کردن	-11.035
▁พล	-11.0351
هایی	-11.0352
となる	-11.0353
▁دى	-11.0356
▁اجل	-11.0357
▁eher	-11.0358
صف	-11.0358
raf	-11.036
▁disco	-11.0362
▁тех	-11.0366
abilir	-11.0366
▁مش	-11.0368
▁ос	-11.0368
▁sec	-11.0368
▁saja	-11.0369
vat	-11.0372
etti	-11.0374
uyệt	-11.0375
▁hapa	-11.0379
▁กระ	-11.038
出现	-11.0381
رع	-11.0382
▁yangu	-11.0386
▁apart	-11.0388
購入して	-11.0391
▁przed	-11.0392
าศ	-11.0395
▁sort	-11.0396
▁viele	-11.04
천	-11.0401
一直	-11.0406
owym	-11.0406
▁υπο	-11.0408
▁کوم	-11.0408
▁aucune	-11.0411
▁regn	-11.0411
▁mia	-11.0411
▁ära	-11.0412
▁position	-11.0414
▁seal	-11.0415
eerde	-11.0415
▁他の	-11.0416
▁खत	-11.0416
ora	-11.0417
uro	-11.0418
oit	-11.042
▁ไหม	-11.0424
▁posta	-11.0424
▁вер	-11.0427
これ	-11.0427
▁neu	-11.0429
▁barn	-11.0434
温	-11.0434
师	-11.0435
散	-11.0435
數	-11.0435
题	-11.0435
▁clinton	-11.0436
▁използва	-11.0436
▁через	-11.0436
▁مشہور	-11.0436
▁आन	-11.0436
▁championnat	-11.0436
▁columbia	-11.0436
▁gracias	-11.0436
▁wollte	-11.0436
▁تاجیکستان	-11.0436
ικά	-11.0436
▁آثار	-11.0436
zę	-11.0436
▁speelt	-11.0436
▁رسید	-11.0437
▁yüzden	-11.0438
▁tolle	-11.0438
▁prepara	-11.0438
▁پھر	-11.0439
▁tăng	-11.044
▁سبب	-11.0442
▁tussen	-11.0442
▁coupe	-11.0443
▁told	-11.0443
ηση	-11.0446
▁kontrol	-11.0448
▁тях	-11.0448
▁ít	-11.0451
ർത	-11.0452
sinin	-11.0452
になった	-11.0455
▁finger	-11.0456
▁лу	-11.0458
ادة	-11.0459
▁direkt	-11.046
▁물	-11.046
▁کش	-11.0461
▁anul	-11.0463
▁날	-11.0464
▁existe	-11.0464
▁borde	-11.0464
▁всех	-11.0466
▁บาง	-11.047
▁sala	-11.0473
ese	-11.0474
▁mort	-11.0475
ды	-11.0477
▁dân	-11.048
▁اسلامی	-11.0484
▁ใหม	-11.049
▁въ	-11.0491
ает	-11.0492
▁liga	-11.0494
▁cool	-11.0494
tá	-11.0497
▁vs	-11.0499
▁hope	-11.05
▁welche	-11.05
▁bunun	-11.0501
▁เว	-11.0502
▁แสดง	-11.0505
▁مال	-11.0507
痛	-11.0507
러나	-11.0507
▁नद	-11.0509
很喜欢	-11.0509
▁importa	-11.051
سره	-11.0511
▁insan	-11.0512
cel	-11.0512
йте	-11.0515
였다	-11.0515
бер	-11.0517
▁точно	-11.0518
▁ges	-11.0519
tern	-11.0522
▁timp	-11.0524
▁قر	-11.0525
▁rond	-11.0529
取り付け	-11.0534
▁musste	-11.0535
цы	-11.0536
pun	-11.0536
▁состав	-11.0542
真的	-11.0546
▁mij	-11.0546
uses	-11.055
หลาย	-11.0551
zan	-11.0553
cca	-11.0553
茶	-11.0554
▁نی	-11.0556
倒	-11.0556
▁grote	-11.0557
ゴ	-11.0559
偏	-11.056
告	-11.056
▁سوري	-11.056
▁địa	-11.0561
▁ไหน	-11.0561
▁전쟁	-11.0561
▁english	-11.0561
▁تغییر	-11.0561
爾	-11.0561
▁besoin	-11.0561
▁sempre	-11.0561
▁quyền	-11.0561
简单	-11.0561
結果	-11.0561
▁xác	-11.0561
合适	-11.0561
simo	-11.0561
ظل	-11.0561
▁akhir	-11.0561
▁hade	-11.0561
▁debería	-11.0561
▁trợ	-11.0561
▁سانچ	-11.0561
▁сказать	-11.0562
▁groep	-11.0563
多少	-11.0563
▁teh	-11.0564
▁office	-11.0565
▁break	-11.0566
▁training	-11.0566
▁живот	-11.0566
明显	-11.0569
pf	-11.0571
ながら	-11.0572
▁tab	-11.0574
▁haya	-11.0577
etto	-11.0578
ラン	-11.0579
वस	-11.058
▁لوړ	-11.0582
▁monaten	-11.0584
▁παρ	-11.0584
ίου	-11.0589
▁cut	-11.0589
▁مرا	-11.0593
▁million	-11.0593
▁hele	-11.0594
▁kuulu	-11.0595
▁date	-11.0596
ในช	-11.0596
وری	-11.0596
▁peng	-11.0597
based	-11.0597
リング	-11.0597
朋友	-11.0602
owi	-11.0602
uff	-11.0602
▁طبق	-11.0603
ないと	-11.0604
▁موضوع	-11.0606
▁области	-11.0607
ٹو	-11.0608
▁thin	-11.0609
▁의해	-11.0612
カー	-11.0615
▁کښ	-11.0616
▁nomen	-11.0616
▁تنظيم	-11.0619
▁noord	-11.062
came	-11.0623
▁wit	-11.0623
gor	-11.0623
▁யவ	-11.0623
▁bom	-11.0624
割	-11.0624
▁hora	-11.0627
าล	-11.0629
바	-11.063
▁その後	-11.063
ませんでした	-11.063
پی	-11.063
▁കൾ	-11.0633
حدث	-11.0634
▁نسبت	-11.0635
▁mano	-11.0635
▁vais	-11.0636
側	-11.0636
容易	-11.0636
作为	-11.0636
▁cause	-11.0638
istas	-11.0638
▁ایس	-11.0639
▁نړ	-11.0642
انہ	-11.0642
ノ	-11.0643
▁บด	-11.0645
▁pare	-11.0645
▁taha	-11.0645
lip	-11.0649
zioni	-11.0649
▁hava	-11.0651
▁compte	-11.0652
▁ис	-11.0655
▁这本书	-11.0656
ydi	-11.0657
▁آزاد	-11.0659
の方が	-11.066
크	-11.066
물	-11.0661
hari	-11.0662
▁caro	-11.0663
▁arrive	-11.0663
▁gua	-11.0665
▁مثال	-11.0665
▁dö	-11.0666
▁ومع	-11.0667
▁eder	-11.0668
▁llevar	-11.067
▁arma	-11.0672
▁alma	-11.0674
したが	-11.0676
▁algun	-11.0676
ชาว	-11.0679
ڼ	-11.0681
iques	-11.0682
▁popul	-11.0683
任何	-11.0684
▁میٹر	-11.0685
區	-11.0686
ېږي	-11.0686
节	-11.0686
移	-11.0686
격	-11.0686
▁plant	-11.0687
司	-11.0687
復	-11.0687
費	-11.0687
함	-11.0687
▁χρόνια	-11.0687
▁انقلاب	-11.0687
▁ثلاث	-11.0687
▁کاؤنٹی	-11.0687
▁உத	-11.0687
架	-11.0687
▁هېواد	-11.0687
▁درمیان	-11.0687
▁مولانا	-11.0687
▁üzere	-11.0687
▁زنجان	-11.0687
▁نقش	-11.0687
▁mandela	-11.0688
▁đặc	-11.0688
▁นช	-11.0688
▁جدید	-11.0689
▁كيف	-11.069
ane	-11.069
▁நகர	-11.0691
▁wel	-11.0692
χρι	-11.0693
▁ฒนา	-11.0693
▁باند	-11.0694
▁شورا	-11.0695
▁تح	-11.0696
▁بلک	-11.0696
elijke	-11.0697
aadhi	-11.0698
ราย	-11.0699
ward	-11.0701
▁الدين	-11.0702
▁又	-11.0702
▁tình	-11.0704
▁visit	-11.0705
っていた	-11.0706
乗	-11.0706
▁canada	-11.0708
▁اخر	-11.0709
▁tijden	-11.071
▁versand	-11.0711
▁もう	-11.0711
▁needed	-11.0712
чер	-11.0713
▁فيه	-11.0713
▁gehen	-11.0715
▁กคร	-11.0716
大家	-11.0718
▁witte	-11.0719
▁sign	-11.0719
▁rõ	-11.0721
▁karar	-11.0725
▁stade	-11.0725
▁prob	-11.0726
▁fini	-11.0726
สมบ	-11.0728
▁tay	-11.0729
▁diferentes	-11.0729
▁적	-11.0731
deki	-11.0731
tom	-11.0731
▁studio	-11.074
ън	-11.0741
▁jon	-11.0741
▁char	-11.0744
țe	-11.0744
▁bluetooth	-11.0744
▁bukan	-11.0746
効果	-11.0746
助	-11.0747
▁집	-11.0748
اتی	-11.0749
sive	-11.075
▁นทร	-11.0751
ări	-11.0753
▁дома	-11.0756
两个	-11.0759
▁rol	-11.076
実際	-11.0761
ments	-11.0764
▁رئيس	-11.0766
▁труд	-11.0769
▁건	-11.0769
λη	-11.0771
rios	-11.0775
▁suite	-11.0776
▁อาจจะ	-11.0784
▁maj	-11.0785
ensis	-11.0785
▁روم	-11.0786
غل	-11.0786
▁работ	-11.0788
▁hall	-11.0788
▁seni	-11.0789
价格	-11.079
▁σκ	-11.0791
▁وجه	-11.0793
▁franc	-11.0794
감	-11.0794
這	-11.0795
네	-11.0796
등	-11.0796
▁event	-11.0796
tionem	-11.0797
▁خون	-11.0797
▁carro	-11.0797
▁재	-11.0797
▁सत	-11.0798
▁hom	-11.0801
▁card	-11.0802
▁astronomi	-11.0803
วง	-11.0804
pira	-11.0804
▁være	-11.0805
▁tient	-11.0805
โ	-11.0805
ult	-11.0806
别	-11.0807
лей	-11.0808
صار	-11.0809
▁phụ	-11.0809
ணம	-11.0809
番	-11.0809
▁cea	-11.081
運	-11.0812
▁天	-11.0812
▁åt	-11.0813
werk	-11.0814
追	-11.0814
▁latin	-11.0815
模	-11.0815
团	-11.0815
ځنګل	-11.0815
▁agréable	-11.0815
▁anglais	-11.0815
▁geeignet	-11.0815
▁lập	-11.0815
▁närheten	-11.0815
▁professor	-11.0815
▁üzerine	-11.0815
▁مربوط	-11.0815
极	-11.0815
热	-11.0815
길	-11.0815
▁dẫn	-11.0815
亦	-11.0815
▁kweli	-11.0815
▁surface	-11.0815
▁تولید	-11.0815
▁única	-11.0815
▁kötü	-11.0816
▁cuanto	-11.0816
提供	-11.0816
▁бар	-11.0817
▁bersama	-11.0817
意味	-11.0817
çok	-11.0818
▁tháng	-11.0819
▁سخت	-11.0819
▁nhau	-11.082
▁مما	-11.0821
▁あと	-11.0822
▁güvenli	-11.0822
▁trabajo	-11.0822
▁bajo	-11.0823
▁دارند	-11.0824
▁commandé	-11.0825
кар	-11.0825
▁간	-11.0827
▁yani	-11.0827
▁сша	-11.0828
▁كال	-11.0831
▁dwa	-11.0831
owe	-11.0831
weg	-11.0832
▁πρό	-11.0832
▁pequeña	-11.0834
ides	-11.0835
▁наук	-11.0835
pes	-11.0837
batur	-11.0839
quel	-11.0842
▁kwam	-11.0843
▁gab	-11.0845
▁ناروغ	-11.0845
เขา	-11.0847
▁força	-11.0848
▁جیس	-11.0849
▁cáo	-11.0854
▁όσο	-11.0855
กต	-11.0856
▁amp	-11.0858
lui	-11.0859
▁golf	-11.0859
▁voll	-11.0859
▁green	-11.0861
▁hende	-11.0862
▁ха	-11.0864
▁تاریخی	-11.0865
ではなく	-11.0865
▁ชอบ	-11.0866
اړه	-11.0866
▁acordo	-11.0868
▁pm	-11.0869
▁haven	-11.0869
まり	-11.087
oma	-11.0872
icht	-11.0874
▁giáo	-11.0875
▁altında	-11.0875
▁unsere	-11.0875
euse	-11.0875
aron	-11.0876
图片	-11.0879
▁island	-11.0879
osi	-11.0879
▁spe	-11.088
▁vista	-11.088
▁species	-11.0881
تين	-11.0882
▁mini	-11.0884
▁这是	-11.0885
▁کمک	-11.0886
▁vä	-11.0887
▁एस	-11.0887
▁ren	-11.0887
▁pul	-11.0888
ugu	-11.0892
▁llegar	-11.0894
رې	-11.0894
خو	-11.0895
▁nende	-11.0897
使える	-11.0906
▁demande	-11.0906
キー	-11.0907
▁mı	-11.0913
▁във	-11.0914
友	-11.0914
ตาย	-11.0915
unci	-11.0916
▁sicher	-11.0916
▁هست	-11.0923
ټر	-11.0923
▁ча	-11.0924
ckt	-11.0924
▁şu	-11.0926
始	-11.0927
록	-11.0927
▁прав	-11.0927
▁امریکا	-11.093
▁pai	-11.0931
希望	-11.0931
▁หาร	-11.0931
転	-11.0933
でしょう	-11.0935
▁hü	-11.0935
段	-11.0936
δο	-11.0938
▁mulle	-11.0939
限	-11.0939
▁đồ	-11.0939
eğer	-11.094
hắc	-11.0942
房	-11.0944
▁pos	-11.0944
▁milli	-11.0944
▁ځل	-11.0945
創	-11.0945
问	-11.0945
界	-11.0945
론	-11.0945
티	-11.0945
▁făcut	-11.0945
▁inggris	-11.0945
▁modèle	-11.0945
▁roissy	-11.0945
▁zeggen	-11.0945
▁википедии	-11.0945
▁پہنچ	-11.0945
嫌	-11.0945
歳	-11.0945
겨	-11.0945
▁bianco	-11.0945
▁texas	-11.0945
▁cinco	-11.0945
▁meisje	-11.0945
جب	-11.0946
教育	-11.0946
獲得	-11.0946
▁الحدود	-11.0946
▁hakuna	-11.0946
▁πραγματικά	-11.0946
▁högsta	-11.0946
▁นเร	-11.0946
tati	-11.0948
▁kasuta	-11.0949
▁ښار	-11.095
还可以	-11.095
ät	-11.0951
▁ழல	-11.0951
▁ละ	-11.0951
▁suficiente	-11.0952
▁acheter	-11.0953
▁format	-11.0953
▁άλλο	-11.0954
▁جواب	-11.0954
▁년에	-11.0954
▁máy	-11.0956
▁pays	-11.0958
▁gerade	-11.0958
▁المدينة	-11.0959
▁kuid	-11.0963
ประเทศ	-11.0965
のような	-11.0966
ью	-11.0967
نڈ	-11.0968
▁desa	-11.0968
انس	-11.0971
▁punkten	-11.0971
使って	-11.0972
schen	-11.0974
دہ	-11.0974
▁besar	-11.0974
用に	-11.0979
ภาพย	-11.0982
▁quem	-11.0983
ήσει	-11.0983
شاء	-11.0985
ترین	-11.0987
جار	-11.0988
ημα	-11.0989
▁със	-11.0989
вать	-11.099
投	-11.0991
▁farben	-11.0992
▁ملت	-11.0994
▁compar	-11.0995
地方	-11.0995
▁director	-11.0995
▁klo	-11.0997
▁ал	-11.0999
зн	-11.0999
فی	-11.1
lement	-11.1
ebilir	-11.1003
▁luta	-11.1003
▁رفت	-11.1003
ania	-11.1004
قف	-11.1005
▁less	-11.1006
sky	-11.1007
mez	-11.1009
phon	-11.1009
stell	-11.1009
▁perd	-11.1011
▁ayam	-11.1012
▁οποίο	-11.1012
▁gros	-11.1012
στους	-11.1013
▁genera	-11.1014
▁одно	-11.1014
شير	-11.1015
▁சத	-11.1016
▁pem	-11.1017
▁layla	-11.102
▁zur	-11.1022
▁бъда	-11.1026
▁incolar	-11.103
иш	-11.1036
▁studi	-11.1037
▁sert	-11.1039
▁องก	-11.1046
▁thậ	-11.1046
دين	-11.1048
▁กก	-11.1049
cil	-11.1049
▁sv	-11.1049
▁ژوند	-11.1049
annya	-11.105
▁reason	-11.105
لاق	-11.1051
▁nation	-11.1052
▁ศน	-11.1058
▁linna	-11.1061
▁sak	-11.1061
大的	-11.1064
▁بول	-11.1064
ദ	-11.1065
▁ideal	-11.1067
▁mold	-11.1069
ctor	-11.1072
▁യമ	-11.1073
hy	-11.1073
セ	-11.1074
令	-11.1074
▁waste	-11.1074
▁zin	-11.1075
关	-11.1075
队	-11.1075
ngo	-11.1075
務	-11.1075
业	-11.1076
固	-11.1076
親	-11.1076
善	-11.1077
张	-11.1077
疑	-11.1077
▁всичко	-11.1077
▁کیلومتر	-11.1077
宮	-11.1077
推荐	-11.1077
處	-11.1077
射	-11.1077
横	-11.1077
翻译	-11.1077
▁guess	-11.1077
居然	-11.1077
▁richard	-11.1077
▁może	-11.1078
ặc	-11.1078
▁kỷ	-11.1078
▁embarg	-11.1078
▁síria	-11.1078
▁vẻ	-11.1079
▁ülke	-11.1079
装着	-11.108
▁購入	-11.108
▁mode	-11.1081
▁وبعد	-11.1081
dé	-11.1081
▁πε	-11.1081
▁ego	-11.1082
▁पहन	-11.1082
▁went	-11.1082
▁quatre	-11.1082
▁रखन	-11.1082
▁espero	-11.1084
▁enciclopedia	-11.1086
isé	-11.1086
▁دارای	-11.1086
τρα	-11.1086
▁recent	-11.1086
▁yao	-11.1089
inha	-11.109
▁xx	-11.1091
▁mitte	-11.1091
▁کردند	-11.1093
▁called	-11.1094
ساعد	-11.1096
▁پل	-11.1096
▁samen	-11.1097
▁年に	-11.1097
▁buku	-11.1101
ales	-11.1101
▁loved	-11.1102
▁فا	-11.1104
บาง	-11.1104
▁corp	-11.1104
▁noget	-11.1105
▁شراب	-11.1105
▁detta	-11.1107
▁verpackung	-11.1108
دع	-11.1108
▁suur	-11.1109
▁रन	-11.1109
وجد	-11.111
طريقة	-11.1111
رک	-11.1112
gun	-11.1113
▁bola	-11.1114
▁rid	-11.1115
▁தவ	-11.1116
▁นหน	-11.1117
لہ	-11.1118
▁없다	-11.1119
▁action	-11.112
良いです	-11.112
▁gele	-11.112
▁งป	-11.1124
配送	-11.1128
▁llego	-11.1128
▁ชาว	-11.1128
rası	-11.113
▁چین	-11.1131
▁instrument	-11.1132
pone	-11.1133
▁생각	-11.1134
▁mina	-11.1137
ето	-11.1141
▁critic	-11.1141
▁başladı	-11.1146
▁pedir	-11.1146
▁أول	-11.1148
كة	-11.1151
erde	-11.1153
▁ประ	-11.1155
τες	-11.1158
はない	-11.1164
gat	-11.1164
▁evi	-11.1166
ينا	-11.1167
lio	-11.1167
▁einige	-11.1168
▁nữ	-11.1173
▁pull	-11.1175
▁bush	-11.1175
▁ملا	-11.1176
võt	-11.1178
ką	-11.1182
▁ее	-11.1182
لات	-11.1184
第三	-11.1185
บน	-11.1187
的には	-11.1187
论	-11.1188
▁சன	-11.1188
ارک	-11.1189
▁personas	-11.1189
angka	-11.119
▁olim	-11.119
цен	-11.119
▁فعال	-11.1195
йки	-11.1195
▁resto	-11.1198
▁michel	-11.1198
▁töö	-11.12
▁concept	-11.1201
変	-11.1202
▁multe	-11.1202
▁rick	-11.1203
▁sko	-11.1203
▁کرو	-11.1204
较	-11.1205
▁속	-11.1206
以及	-11.1207
▁karibu	-11.1207
▁ό	-11.1208
▁cred	-11.1209
対	-11.1209
経	-11.1209
核	-11.1209
망	-11.121
越	-11.121
태	-11.121
左	-11.121
증	-11.121
イヤホン	-11.121
层	-11.121
▁alguém	-11.121
▁pièce	-11.121
▁triển	-11.121
▁почему	-11.121
影响	-11.121
▁хотя	-11.121
▁böyle	-11.121
▁accident	-11.121
▁america	-11.1211
セット	-11.1211
なん	-11.1211
理解	-11.1211
▁prim	-11.1211
▁client	-11.1212
▁день	-11.1212
▁tiên	-11.1213
▁lần	-11.1214
▁ستر	-11.1214
▁살	-11.1214
▁kaç	-11.1215
▁град	-11.1215
▁எத	-11.1216
▁fecha	-11.1216
▁born	-11.1217
▁tight	-11.1218
▁всеки	-11.1218
براہ	-11.122
之一	-11.1221
▁цел	-11.1222
하였으	-11.1222
▁งงาน	-11.1222
仕事	-11.1223
▁grad	-11.1228
▁tarihinde	-11.123
이라고	-11.1231
وٹ	-11.1231
▁gas	-11.1233
▁rh	-11.1233
▁والتي	-11.1234
▁นอน	-11.1235
▁즉	-11.1236
▁mel	-11.1239
他の	-11.124
plan	-11.1241
▁rod	-11.1243
قدر	-11.1243
mand	-11.1243
▁eigen	-11.1244
▁bé	-11.1244
▁прави	-11.1247
befolka	-11.1248
▁prend	-11.1249
▁phá	-11.125
far	-11.125
▁начал	-11.1251
▁ihre	-11.1252
بدأ	-11.1254
▁dazu	-11.1254
بد	-11.1256
ikan	-11.1256
▁мога	-11.1257
▁டல	-11.1258
▁bran	-11.1258
▁أس	-11.1259
λο	-11.126
توب	-11.126
▁وقال	-11.126
ydı	-11.1263
▁wales	-11.1264
erit	-11.1264
▁kata	-11.1265
▁inside	-11.1266
▁پرو	-11.1267
いです	-11.1268
avez	-11.1269
▁اح	-11.1269
▁firma	-11.1269
▁often	-11.127
▁hodie	-11.1271
▁充電	-11.1274
个人	-11.1275
貼	-11.1277
▁تنها	-11.1277
ําหน	-11.1284
γε	-11.1284
▁ئ	-11.1285
ște	-11.1287
اة	-11.1287
ningen	-11.1287
شگاه	-11.1288
▁dil	-11.129
ijn	-11.1294
▁injil	-11.1294
jes	-11.1294
azione	-11.1295
보다	-11.1296
▁对	-11.1296
▁kara	-11.1298
▁ทร	-11.13
▁uw	-11.1302
άλ	-11.1304
▁phil	-11.1305
▁jahr	-11.1306
خرج	-11.1311
▁conta	-11.1317
▁ден	-11.1319
ova	-11.1319
▁περι	-11.132
면서	-11.132
вания	-11.1323
رات	-11.1324
▁其	-11.1325
▁امر	-11.1326
▁सव	-11.133
▁protest	-11.133
รณ	-11.1332
▁실	-11.1333
▁طالب	-11.1333
heim	-11.1334
▁meinem	-11.1334
▁경우	-11.1341
통	-11.1343
支	-11.1344
▁sulle	-11.1345
▁thư	-11.1345
報	-11.1345
随	-11.1345
백	-11.1345
북	-11.1345
극	-11.1345
ướng	-11.1345
▁huduma	-11.1345
▁luận	-11.1345
▁siècle	-11.1345
▁último	-11.1345
▁вероятно	-11.1345
▁период	-11.1345
▁உலக	-11.1345
邮	-11.1345
코	-11.1345
猫	-11.1345
七	-11.1345
▁ministro	-11.1345
▁едно	-11.1345
▁mmoja	-11.1345
▁anfang	-11.1345
▁decision	-11.1346
▁изглежда	-11.1346
▁모두	-11.1346
▁ajusta	-11.1346
본	-11.1346
▁جمعیت	-11.1347
▁αρέσει	-11.1347
▁voiture	-11.1347
شركة	-11.1348
▁luft	-11.1348
side	-11.1348
gl	-11.1348
▁رقب	-11.1348
▁mach	-11.1349
▁vrij	-11.135
▁population	-11.135
▁것이다	-11.1351
▁modelo	-11.1354
urile	-11.1354
▁paket	-11.1354
▁cửa	-11.1354
▁carne	-11.1356
▁internacional	-11.1357
ors	-11.1358
いいです	-11.1359
▁dove	-11.1361
▁malgr	-11.1363
▁khách	-11.1366
मत	-11.1366
不了	-11.137
▁online	-11.1371
▁شر	-11.1371
▁nouvelle	-11.1372
▁wood	-11.1372
jour	-11.1373
▁fragile	-11.1373
▁idee	-11.1374
vant	-11.1375
αστ	-11.1375
lain	-11.1376
▁پہ	-11.1379
▁رد	-11.138
ترجم	-11.1383
▁fé	-11.139
spel	-11.1391
▁امریکی	-11.1392
▁ние	-11.1393
▁مواد	-11.1394
▁israel	-11.1395
▁mc	-11.1395
dim	-11.1398
صور	-11.1399
▁کول	-11.1401
▁demás	-11.1402
ieron	-11.1403
▁hadi	-11.1404
قد	-11.1405
にして	-11.1405
이나	-11.1407
din	-11.1408
▁tog	-11.1409
▁recu	-11.141
▁amor	-11.1412
▁gau	-11.1413
▁bomba	-11.1413
▁podem	-11.1419
▁maja	-11.142
omi	-11.1421
▁век	-11.1425
▁ag	-11.143
oyunca	-11.1432
ยาว	-11.1432
lise	-11.1432
ικές	-11.1434
▁include	-11.1435
▁کړه	-11.1436
▁piece	-11.1436
amment	-11.1436
τικό	-11.1436
▁입	-11.144
▁avis	-11.1441
▁regard	-11.1441
值	-11.1441
▁這	-11.1444
▁नम	-11.1447
οντας	-11.145
▁feri	-11.145
▁gui	-11.145
▁tasche	-11.1451
▁проект	-11.1451
裏	-11.1454
▁yapmak	-11.1454
▁hingga	-11.1455
滑	-11.1458
hind	-11.1459
dom	-11.1461
▁espera	-11.1461
▁anna	-11.1462
이라	-11.1462
▁چھوٹ	-11.1462
▁zij	-11.1465
رار	-11.1466
▁били	-11.1467
▁출	-11.1467
▁kuch	-11.1467
しており	-11.1468
되는	-11.1469
▁мог	-11.147
▁göster	-11.1472
▁път	-11.1474
fik	-11.1478
▁freund	-11.1478
▁chien	-11.1479
▁kuu	-11.1481
وري	-11.1482
優	-11.1482
귀	-11.1482
▁موقع	-11.1482
电话	-11.1482
粉	-11.1482
戰	-11.1482
▁เศษ	-11.1482
▁cộng	-11.1482
▁hoạt	-11.1482
迷	-11.1482
▁marekani	-11.1482
▁разбира	-11.1482
▁جہاں	-11.1482
▁управление	-11.1482
バッテリー	-11.1482
▁liegt	-11.1482
▁defekt	-11.1482
▁колко	-11.1483
参加	-11.1483
ダメ	-11.1483
▁gọ	-11.1483
やすく	-11.1483
▁earth	-11.1484
心配	-11.1484
▁quickly	-11.1484
▁انتقال	-11.1484
女性	-11.1484
▁dessus	-11.1485
род	-11.1485
▁pain	-11.1486
▁terug	-11.1486
kaz	-11.1487
▁pierre	-11.1487
▁cependant	-11.1488
▁erhalten	-11.1489
▁fiind	-11.149
▁bình	-11.149
があります	-11.149
▁papier	-11.1491
▁winter	-11.1491
though	-11.1492
▁പര	-11.1492
ഞ	-11.1492
▁hafta	-11.1492
▁anders	-11.1492
حاول	-11.1493
▁angeles	-11.1494
▁sup	-11.1495
मर	-11.1495
▁yüz	-11.1495
▁الحرب	-11.1495
▁biliyorsun	-11.1495
▁کابل	-11.1496
قاعد	-11.1496
ehemu	-11.1497
▁jeden	-11.1497
▁كبيرة	-11.1498
hara	-11.1498
κτ	-11.1498
تحدث	-11.15
lon	-11.1501
اند	-11.1501
などの	-11.1503
▁suave	-11.1503
يئة	-11.1503
βλ	-11.1504
εν	-11.1505
عدم	-11.1507
▁还有	-11.1507
rou	-11.1507
▁sistemi	-11.1508
ская	-11.1508
سام	-11.151
gd	-11.1511
▁atas	-11.1511
▁north	-11.1511
▁nay	-11.1513
▁بھر	-11.1513
ъл	-11.1514
▁صدر	-11.1516
rade	-11.1519
▁regalo	-11.1519
kh	-11.152
▁المال	-11.1523
▁dizer	-11.1524
▁iv	-11.1527
کنون	-11.1528
▁certain	-11.1531
kas	-11.1537
eja	-11.1538
▁wouldn	-11.1539
kuwa	-11.154
▁mean	-11.1541
▁couple	-11.1542
جة	-11.1546
dina	-11.1546
▁mauvaise	-11.1547
low	-11.1547
很快	-11.1551
mbang	-11.1552
▁gaan	-11.1555
มหา	-11.1557
▁clo	-11.1559
▁nero	-11.156
▁enfants	-11.156
kop	-11.156
前に	-11.156
▁raja	-11.1565
kup	-11.1569
lalu	-11.1571
▁kullan	-11.1571
شه	-11.1572
meye	-11.1572
дори	-11.1572
▁معا	-11.1574
▁างน	-11.1579
位置	-11.1579
通常	-11.1579
tage	-11.1579
年月	-11.1581
rap	-11.1584
したい	-11.1587
▁sche	-11.1589
▁nec	-11.1589
▁carr	-11.1591
مار	-11.1593
vär	-11.1593
▁งใน	-11.1595
ホ	-11.1597
▁ар	-11.1597
▁டக	-11.1598
▁имаш	-11.1599
▁دیکھا	-11.1599
▁honor	-11.1604
тельно	-11.1604
▁دوم	-11.1606
▁olur	-11.1607
fatt	-11.1608
▁했다	-11.1608
▁poste	-11.1608
▁θε	-11.161
กเร	-11.1618
டக	-11.1618
▁ميل	-11.1618
준	-11.162
黑	-11.162
运	-11.1621
랑	-11.1621
ใส	-11.1621
dığını	-11.1621
สงคราม	-11.1621
奇	-11.1621
微	-11.1621
站	-11.1621
休	-11.1621
▁efficace	-11.1621
▁música	-11.1621
▁आग	-11.1621
酒	-11.1621
골	-11.1621
则	-11.1621
聖	-11.1621
阿米尔	-11.1621
▁history	-11.1621
▁kilometer	-11.1621
世紀	-11.1621
▁fuerte	-11.1622
英語	-11.1622
▁سابق	-11.1622
接受	-11.1622
▁mount	-11.1622
▁ngay	-11.1622
▁gitme	-11.1623
▁πολλά	-11.1624
还不错	-11.1624
▁aceste	-11.1624
klar	-11.1625
▁bureau	-11.1625
▁pek	-11.1625
▁اجاز	-11.1625
بير	-11.1626
▁museum	-11.1626
▁أيضا	-11.1626
历史	-11.1627
▁states	-11.1628
▁kwanza	-11.1628
▁دے	-11.1629
▁prof	-11.163
▁öster	-11.163
▁origine	-11.1631
ksi	-11.1632
пол	-11.1635
▁رات	-11.1635
▁kir	-11.1637
▁มต	-11.1639
▁tác	-11.1639
ศาล	-11.1639
แนว	-11.1641
▁denn	-11.1642
vang	-11.1643
▁islam	-11.1644
▁بلا	-11.1646
▁ژ	-11.1647
▁شا	-11.1647
orna	-11.1647
kte	-11.1648
▁லக	-11.1648
アン	-11.1649
▁estrellas	-11.1651
▁gerçek	-11.1652
▁question	-11.1653
igt	-11.1654
▁αυτός	-11.1656
かと	-11.1656
▁wall	-11.1657
▁lance	-11.1658
▁doar	-11.1665
▁ново	-11.1665
▁destin	-11.1667
▁我们	-11.1667
▁同	-11.1668
تھ	-11.167
embre	-11.167
ambi	-11.1673
▁element	-11.1674
▁ഥ	-11.1678
▁kesi	-11.1678
▁spre	-11.1682
▁โรงเ	-11.1685
raya	-11.169
▁องจาก	-11.169
▁들어	-11.169
▁不是	-11.1694
▁دب	-11.1695
▁sitt	-11.1697
лин	-11.17
▁editor	-11.1701
▁deel	-11.1701
▁약	-11.1702
▁misma	-11.1702
▁كتاب	-11.1703
▁lac	-11.1704
すぎ	-11.1706
▁cosas	-11.1707
▁tapa	-11.1709
▁trí	-11.1711
ì	-11.1711
عث	-11.1714
▁매	-11.1716
ures	-11.1717
▁மர	-11.1717
▁né	-11.172
▁sawa	-11.1721
이었다	-11.1722
طن	-11.1726
▁carta	-11.1727
ايا	-11.1727
▁diri	-11.1728
现在	-11.1731
▁شان	-11.1731
▁پنج	-11.1733
arkan	-11.1734
버	-11.1735
▁快递	-11.1735
▁yasal	-11.1739
كن	-11.1739
▁jur	-11.1739
▁говори	-11.1741
能力	-11.1743
أنها	-11.1743
▁வம	-11.1743
▁совет	-11.1749
tam	-11.175
▁observa	-11.175
▁rem	-11.1754
았	-11.1754
ของเขา	-11.1757
根	-11.1761
展	-11.1761
福	-11.1761
含	-11.1761
刻	-11.1762
울	-11.1762
향	-11.1762
境	-11.1762
aires	-11.1762
▁đư	-11.1762
極	-11.1762
瓶	-11.1762
▁dólares	-11.1762
▁eğitim	-11.1762
▁luật	-11.1762
▁здесь	-11.1762
▁нужно	-11.1762
▁россии	-11.1762
▁엘프	-11.1762
▁счита	-11.1762
发票	-11.1762
▁daughter	-11.1762
▁lợi	-11.1762
▁menggunakan	-11.1762
设计	-11.1762
▁wrong	-11.1762
▁zusammen	-11.1762
▁rugby	-11.1762
▁جھیل	-11.1762
▁يبدو	-11.1762
▁country	-11.1762
▁хора	-11.1762
▁sendiri	-11.1762
▁dabei	-11.1762
ゴム	-11.1762
予定	-11.1763
旅行	-11.1763
地区	-11.1765
▁body	-11.1766
▁tudo	-11.1766
▁син	-11.1767
看了	-11.1768
们	-11.1769
▁summer	-11.177
دید	-11.1771
afi	-11.1773
قوم	-11.1773
様	-11.1776
▁fick	-11.1778
▁dünn	-11.1779
ged	-11.1779
▁chan	-11.178
▁وسط	-11.1781
▁بالنس	-11.1781
재	-11.1782
▁graec	-11.1783
▁wind	-11.1784
▁cứu	-11.1784
▁东西	-11.1784
▁ekonomi	-11.1786
vait	-11.1788
▁فرق	-11.1789
▁fotos	-11.1791
▁सल	-11.1791
让我	-11.1796
قات	-11.1796
▁mimi	-11.1799
城市	-11.18
▁declara	-11.1801
▁นใจ	-11.1803
▁خاطر	-11.1804
لعب	-11.1805
▁bitte	-11.1805
▁avon	-11.1806
▁tham	-11.1806
inaweza	-11.1807
▁dedi	-11.1808
จําก	-11.1809
▁pied	-11.181
▁hizmet	-11.181
▁لدي	-11.1812
▁sole	-11.1814
▁dor	-11.1816
影	-11.1816
▁กด	-11.1818
とき	-11.1819
пре	-11.1822
ても	-11.1831
هذا	-11.1831
都不	-11.1831
▁mnie	-11.1834
sü	-11.1835
▁licht	-11.1835
▁оп	-11.1836
本书	-11.1839
▁tale	-11.184
▁говорит	-11.1841
ają	-11.1841
▁ausge	-11.1842
▁점	-11.1843
kal	-11.1843
▁aile	-11.1843
про	-11.1845
▁لومړ	-11.1845
▁labor	-11.1845
▁near	-11.1846
▁divers	-11.1847
alda	-11.1847
▁dizi	-11.1847
▁bog	-11.1849
▁моя	-11.185
されていた	-11.1851
▁confi	-11.1852
บอก	-11.1852
▁pil	-11.1853
طلب	-11.1854
▁الاست	-11.1854
وبا	-11.1854
ków	-11.1854
ffer	-11.1855
▁toutes	-11.1857
نى	-11.1858
▁汤姆	-11.1858
iel	-11.1863
▁siis	-11.1863
▁дела	-11.1863
方は	-11.1866
برا	-11.1867
▁حالت	-11.1869
▁肯尼迪	-11.187
▁종	-11.1872
▁religi	-11.1872
▁yakın	-11.1873
nam	-11.1873
▁rota	-11.1874
▁kaum	-11.1875
购物	-11.1876
▁hole	-11.1877
▁dessa	-11.1877
▁representa	-11.1878
मन	-11.1881
▁أم	-11.1884
لح	-11.1884
▁olabilir	-11.1888
▁sendo	-11.189
กรณ	-11.1891
nak	-11.1893
يرس	-11.1893
▁iç	-11.1897
σαν	-11.1897
▁compro	-11.1897
▁spel	-11.1898
用の	-11.19
登	-11.1902
参	-11.1903
稱	-11.1904
武	-11.1904
언	-11.1904
九	-11.1904
디	-11.1905
독	-11.1905
류	-11.1905
▁afghanistan	-11.1905
▁ποτέ	-11.1905
经济	-11.1905
▁اکثر	-11.1905
▁enttäuscht	-11.1905
結構	-11.1905
确实	-11.1905
▁cristal	-11.1905
▁khả	-11.1905
▁bottom	-11.1905
▁mondial	-11.1905
▁واپس	-11.1905
▁واضح	-11.1906
▁début	-11.1906
▁بسبب	-11.1906
ประจํา	-11.1907
▁cadeau	-11.1907
▁उल	-11.1907
▁eindruck	-11.1907
放送	-11.1907
▁kelime	-11.1907
▁application	-11.1907
▁femme	-11.1908
ndus	-11.1908
社会	-11.1908
たち	-11.1909
▁report	-11.191
▁erfüllt	-11.191
▁alcun	-11.191
▁titre	-11.1912
▁doctor	-11.1914
▁fatto	-11.1914
ائم	-11.1915
▁handle	-11.1915
▁sav	-11.1915
پور	-11.1915
▁영	-11.1916
▁пос	-11.1919
▁sonido	-11.1919
▁έχεις	-11.192
▁รก	-11.1922
▁ware	-11.1922
▁wange	-11.1923
▁کرتی	-11.1923
▁schi	-11.1923
حضر	-11.1924
▁русско	-11.1924
▁centre	-11.1925
زان	-11.1926
▁young	-11.1929
你们	-11.1929
▁زند	-11.193
خبر	-11.1935
▁punct	-11.1939
▁dna	-11.194
を見	-11.194
▁本来	-11.1941
▁عبدال	-11.1941
mad	-11.1941
▁pues	-11.1941
iyet	-11.1942
schap	-11.1945
都没有	-11.1946
된다	-11.1949
▁تیم	-11.1949
▁loc	-11.1951
ense	-11.1951
уд	-11.1953
▁могу	-11.1955
▁حر	-11.1957
▁utiliza	-11.1959
▁hija	-11.1959
abili	-11.1961
امي	-11.1962
غو	-11.1963
터	-11.1964
▁места	-11.1964
สาร	-11.1965
▁participa	-11.1965
▁kent	-11.1965
▁пор	-11.1967
owych	-11.1967
▁شدن	-11.1968
一部	-11.1969
▁lhe	-11.1974
てくれ	-11.1975
▁fili	-11.1977
▁provide	-11.1978
kam	-11.1978
mız	-11.1979
▁baja	-11.1979
产	-11.198
گار	-11.198
ですか	-11.1982
▁هوا	-11.1983
▁どう	-11.1983
▁घट	-11.1985
iens	-11.1991
ienne	-11.1992
▁یوه	-11.1994
▁جهان	-11.1994
tatud	-11.1995
▁tienes	-11.1996
▁편	-11.1996
سې	-11.1997
记	-11.2001
決	-11.2001
▁arr	-11.2004
▁カ	-11.2005
轻	-11.2007
▁قدم	-11.201
fra	-11.2012
ぐ	-11.2013
▁가지	-11.2014
違い	-11.2015
買い	-11.2016
▁domu	-11.2018
▁آباد	-11.2019
▁lider	-11.2019
bir	-11.2019
แยก	-11.2019
▁german	-11.2021
▁финансов	-11.2022
▁บผ	-11.2024
▁aller	-11.2025
ทํางาน	-11.2027
tsiooni	-11.2028
▁geral	-11.2029
▁پہل	-11.2029
▁registr	-11.2035
▁باب	-11.2037
▁พวก	-11.2038
eze	-11.2041
رون	-11.2044
良く	-11.2045
▁weeks	-11.2046
▁lagi	-11.2046
香	-11.2047
▁grave	-11.2048
▁υπάρχ	-11.2049
卖	-11.2049
勝	-11.2049
適	-11.2049
희	-11.205
▁академи	-11.205
품	-11.205
▁hidup	-11.205
▁результат	-11.205
▁تقسیم	-11.205
▁आश	-11.205
▁அப	-11.205
▁วเอง	-11.205
森	-11.205
▁качестве	-11.205
▁battery	-11.205
および	-11.205
氏	-11.205
編	-11.205
▁jullie	-11.205
▁είστε	-11.205
▁instead	-11.205
▁مقدار	-11.205
▁نتیج	-11.205
反応	-11.205
違う	-11.205
▁tên	-11.205
レベル	-11.205
▁υπάρχουν	-11.2051
▁snow	-11.2051
事件	-11.2052
▁외	-11.2052
▁ختم	-11.2053
这些	-11.2053
▁argent	-11.2053
▁하나	-11.2054
ppen	-11.2054
▁پانی	-11.2054
一番	-11.2056
▁tenho	-11.2057
▁temporada	-11.2057
▁ماذا	-11.2057
▁vive	-11.2058
▁څه	-11.2058
▁praw	-11.2059
هغه	-11.206
▁reli	-11.2062
▁سوف	-11.2062
▁ورځ	-11.2063
▁일에	-11.2063
▁pilot	-11.2063
▁ml	-11.2064
▁ปล	-11.2065
▁другие	-11.2065
▁العلم	-11.2066
yon	-11.2067
▁gaat	-11.2068
▁าค	-11.207
▁acqua	-11.2071
▁assis	-11.2073
کان	-11.2073
▁marty	-11.2073
▁gru	-11.2074
▁pagi	-11.2075
▁trabalho	-11.2077
lerde	-11.2078
각	-11.208
รายการ	-11.208
なくて	-11.2082
모	-11.2083
بلغ	-11.2084
фа	-11.2084
ıdır	-11.2088
▁piedi	-11.2088
▁asia	-11.209
ident	-11.2091
▁момент	-11.2093
人は	-11.2094
ング	-11.2099
▁فوق	-11.2099
アー	-11.2099
▁mannen	-11.21
また	-11.2101
▁stann	-11.2101
▁andre	-11.2101
▁بے	-11.2101
ánh	-11.2103
tón	-11.2104
▁افغان	-11.2106
▁große	-11.2106
▁chance	-11.2108
▁servi	-11.2109
▁valor	-11.2112
▁gece	-11.2113
▁contribu	-11.2114
▁غو	-11.2114
▁huo	-11.2115
▁tiga	-11.2115
▁rede	-11.2117
▁länger	-11.2117
▁قم	-11.2118
tisch	-11.2119
▁งได	-11.212
ようです	-11.212
esse	-11.2124
説明	-11.2126
▁adore	-11.2127
hand	-11.2128
▁beş	-11.213
▁kamera	-11.213
▁特に	-11.213
▁voy	-11.2132
▁первы	-11.2132
이야	-11.2134
وو	-11.2138
▁화	-11.2138
▁aina	-11.2139
penda	-11.2143
uki	-11.2143
▁خیل	-11.2145
方便	-11.2146
外れ	-11.2146
買った	-11.2147
因为	-11.2149
erne	-11.2151
ښو	-11.2154
▁यव	-11.2155
▁leistung	-11.2157
▁liv	-11.2159
▁raus	-11.2159
▁mun	-11.2159
ques	-11.216
ıp	-11.216
ıyla	-11.2163
سه	-11.2165
マン	-11.2166
อบ	-11.2168
▁عضو	-11.2169
▁ghi	-11.217
▁fire	-11.217
▁ski	-11.2172
▁запис	-11.2174
φορ	-11.2178
ants	-11.2179
رخ	-11.218
▁الث	-11.2181
τική	-11.2181
ний	-11.2181
一つ	-11.2184
▁font	-11.2185
رز	-11.2186
▁сделал	-11.2186
iks	-11.2187
ис	-11.2188
▁तब	-11.2189
▁بأن	-11.2189
▁đứ	-11.219
具	-11.2192
自分	-11.2193
ără	-11.2193
▁درخت	-11.2194
▁단	-11.2195
▁göz	-11.2195
族	-11.2195
▁agr	-11.2196
導	-11.2196
缺	-11.2196
父	-11.2196
状	-11.2196
港	-11.2196
困	-11.2196
永	-11.2197
远	-11.2197
▁möglich	-11.2197
▁แข	-11.2197
双	-11.2197
▁qualcuno	-11.2197
▁tofauti	-11.2197
▁tưởng	-11.2197
▁verkäufer	-11.2197
▁언데드	-11.2197
喝	-11.2197
쳐	-11.2197
환	-11.2197
▁ответ	-11.2197
▁conserva	-11.2197
▁hareket	-11.2197
▁ربما	-11.2197
总统	-11.2197
▁kommun	-11.2197
▁passo	-11.2197
▁dahil	-11.2197
▁bottle	-11.2197
▁yapılan	-11.2197
▁있으	-11.2197
▁sağlık	-11.2197
▁güney	-11.2197
▁royal	-11.2198
来说	-11.2198
そこ	-11.2198
▁khá	-11.2198
週間	-11.2199
▁association	-11.2199
▁വള	-11.2199
▁زیبا	-11.2199
▁proyecto	-11.22
▁hizo	-11.22
▁ühe	-11.2201
▁installation	-11.2201
▁constant	-11.2201
▁мене	-11.2202
uran	-11.2202
▁liệu	-11.2202
▁那	-11.2202
▁الدولة	-11.2204
实在	-11.2204
tract	-11.2204
▁ip	-11.2204
▁phương	-11.2204
▁firm	-11.2204
▁usado	-11.2204
▁phục	-11.2205
avit	-11.2206
▁الوطنية	-11.2207
▁term	-11.2207
▁river	-11.2207
▁wasn	-11.2208
▁skriv	-11.2208
▁tục	-11.2209
ёт	-11.2209
▁มข	-11.221
▁along	-11.2211
rb	-11.2212
▁힘	-11.2213
▁کیلو	-11.2214
ڈر	-11.2214
овой	-11.2215
ology	-11.2218
▁regel	-11.2218
▁فتح	-11.2219
▁beste	-11.2223
▁анализ	-11.2225
จน	-11.2225
▁мон	-11.2226
▁wote	-11.2226
▁karne	-11.2227
▁ناح	-11.2227
▁френски	-11.2229
▁tuli	-11.223
سون	-11.2233
▁junto	-11.2235
▁کولو	-11.2235
حال	-11.2236
▁뒤	-11.2238
λί	-11.2238
두	-11.2239
ones	-11.2243
▁usu	-11.2244
▁thi	-11.2244
▁level	-11.2251
▁стал	-11.2251
▁malo	-11.2252
ணக	-11.2255
อม	-11.2255
атор	-11.2256
▁studie	-11.2259
▁outro	-11.2263
يک	-11.2263
▁जव	-11.2264
ellement	-11.2264
▁má	-11.2266
▁المست	-11.2266
icos	-11.2267
▁دارم	-11.2269
▁integra	-11.2269
替え	-11.2273
▁lor	-11.2274
▁bine	-11.2278
▁kooli	-11.2278
▁klassi	-11.2279
stic	-11.2282
خير	-11.2282
▁göra	-11.2285
▁วไป	-11.2287
▁кри	-11.2289
шь	-11.2289
▁weer	-11.229
▁tego	-11.2291
ひ	-11.2291
ến	-11.2292
venir	-11.2293
▁araba	-11.2296
▁まだ	-11.2296
▁اعت	-11.2297
普	-11.2298
▁ตว	-11.2299
ơi	-11.2301
ешь	-11.2303
▁части	-11.2305
▁آمد	-11.2306
κου	-11.2306
▁gol	-11.2306
زن	-11.2307
▁denk	-11.2312
▁ความร	-11.2313
▁sag	-11.2314
komst	-11.2314
▁호	-11.232
晚	-11.2325
▁hé	-11.2326
▁mada	-11.2326
▁hast	-11.2326
▁düşün	-11.2327
▁لگ	-11.2327
▁vilke	-11.233
▁ளம	-11.233
大きい	-11.2331
▁بھ	-11.2332
▁thủ	-11.2333
▁insula	-11.2336
▁encontrar	-11.2337
овать	-11.2338
考	-11.2338
bă	-11.2338
пад	-11.2341
還	-11.2343
▁será	-11.2343
中の	-11.2345
▁necesita	-11.2345
▁دوسر	-11.2346
权	-11.2346
▁philip	-11.2346
伝	-11.2346
寺	-11.2346
▁difícil	-11.2346
▁exemple	-11.2346
▁lực	-11.2346
▁nghệ	-11.2346
▁zweck	-11.2346
▁đủ	-11.2346
▁адвокат	-11.2346
▁российск	-11.2346
색	-11.2346
▁beautiful	-11.2346
▁ảnh	-11.2346
▁aldrig	-11.2346
▁truyền	-11.2346
ใกล	-11.2346
▁نحو	-11.2346
▁batería	-11.2346
▁recomendable	-11.2346
▁نوموړ	-11.2347
▁പറയ	-11.2347
カード	-11.2347
▁جمله	-11.2347
▁image	-11.2347
▁dernier	-11.2347
▁tanggal	-11.2347
มาช	-11.2348
▁index	-11.2348
▁ikinci	-11.2348
▁пример	-11.2348
▁cổ	-11.2349
▁dress	-11.2349
▁ฬา	-11.2349
▁றனர	-11.2349
▁mẹ	-11.235
▁ear	-11.2351
▁غر	-11.2353
ะเบ	-11.2353
▁ngô	-11.2354
κλ	-11.2355
▁nghe	-11.2356
ったり	-11.2356
▁งแรก	-11.2358
▁ความส	-11.2359
▁سک	-11.2359
▁photos	-11.236
▁باندي	-11.2361
完成	-11.2362
▁genus	-11.2362
▁glas	-11.2363
▁sia	-11.2363
วาง	-11.2363
▁enam	-11.2364
สาม	-11.2364
كنيس	-11.2365
▁kop	-11.2366
▁เปล	-11.2366
بات	-11.2367
▁عليها	-11.2369
▁seller	-11.2372
▁edition	-11.2373
▁sais	-11.2375
ナー	-11.2375
▁unde	-11.2375
▁cru	-11.2375
▁جمهوری	-11.2376
öl	-11.2377
▁epi	-11.2378
▁nina	-11.2379
很不错	-11.2381
▁spring	-11.2385
▁forte	-11.2387
▁artículo	-11.2387
gou	-11.239
กฎหมาย	-11.239
fas	-11.239
▁mah	-11.2392
cak	-11.2392
입	-11.2392
공	-11.2393
کھ	-11.2393
▁없	-11.2395
▁urban	-11.2395
▁individual	-11.2396
▁peso	-11.2396
▁dark	-11.2397
▁punto	-11.2398
▁needs	-11.2398
置	-11.2398
つけ	-11.2399
▁งคง	-11.2399
▁salta	-11.2399
▁max	-11.24
▁iets	-11.24
ลา	-11.2401
▁เค	-11.2402
リコ	-11.2403
▁alguno	-11.2405
▁today	-11.2406
ソ	-11.2408
▁тому	-11.2408
ено	-11.241
▁rip	-11.2411
最初	-11.2411
▁جذب	-11.2413
▁yesu	-11.2413
▁warm	-11.2414
لینڈ	-11.2415
▁новы	-11.2415
这一	-11.2417
▁amigos	-11.2417
▁место	-11.2418
▁其中	-11.242
وست	-11.2423
जन	-11.2424
ables	-11.2424
▁买了	-11.2425
▁glass	-11.2426
▁احمد	-11.2426
▁yu	-11.2428
lant	-11.2429
▁شوه	-11.2433
وات	-11.2434
aggio	-11.2439
autem	-11.244
ήσεις	-11.2443
▁limit	-11.2446
apan	-11.2447
▁barat	-11.2454
▁habet	-11.2457
▁coll	-11.2459
idas	-11.2461
▁کلم	-11.2464
pata	-11.2464
▁sab	-11.2465
لن	-11.2465
زل	-11.2467
icus	-11.2467
▁positiv	-11.2468
culo	-11.2469
▁จํา	-11.247
▁比	-11.2471
▁jeu	-11.2471
▁guarda	-11.2473
君	-11.2475
▁solid	-11.2475
▁kre	-11.2475
▁pone	-11.248
▁söz	-11.248
▁تخمون	-11.2482
▁był	-11.2482
bij	-11.2483
▁قدر	-11.2484
ям	-11.2486
▁programme	-11.2486
席	-11.2489
ped	-11.2491
▁gold	-11.2493
ότητα	-11.2493
類	-11.2494
致	-11.2495
且	-11.2497
章	-11.2497
华	-11.2497
典	-11.2497
領	-11.2497
呼	-11.2497
▁kennedy	-11.2498
▁бизнес	-11.2498
▁включа	-11.2498
▁일리단	-11.2498
▁сегодня	-11.2498
▁همیشه	-11.2498
▁스랄	-11.2498
裂	-11.2498
ユ	-11.2498
罗	-11.2498
转	-11.2498
▁yahudi	-11.2498
大きさ	-11.2498
▁مسئل	-11.2498
▁aparece	-11.2498
▁πράγματα	-11.2498
▁θέλω	-11.2498
▁экономическо	-11.2498
▁puoi	-11.2498
▁அவள	-11.2498
活动	-11.2498
ベルト	-11.2498
がない	-11.2498
▁μέσα	-11.2498
▁خدمات	-11.2498
▁programma	-11.25
▁kleiner	-11.25
▁المنطقة	-11.25
▁عبارت	-11.2501
▁society	-11.2501
kala	-11.2502
▁côté	-11.2502
以外	-11.2504
▁취	-11.2504
▁early	-11.2508
▁değer	-11.2509
ضم	-11.2509
において	-11.251
▁งชาต	-11.251
▁season	-11.2512
▁வளர	-11.2512
mı	-11.2512
▁യത	-11.2513
▁فوج	-11.2515
▁liste	-11.2517
▁ligne	-11.252
▁ทยาล	-11.2522
слов	-11.2523
▁quil	-11.2524
▁talk	-11.2525
▁został	-11.2526
ability	-11.2527
gång	-11.2535
되었	-11.2536
span	-11.2538
نۍ	-11.2538
▁値段	-11.2539
▁add	-11.254
コン	-11.254
gặ	-11.2541
▁får	-11.2542
だったので	-11.2544
なのか	-11.2544
ήματα	-11.2545
▁ones	-11.2546
▁spus	-11.2546
▁ศตวรรษ	-11.2546
▁hen	-11.2548
▁broken	-11.2548
▁preto	-11.2549
피	-11.2552
▁eben	-11.2556
▁principio	-11.2558
▁tragen	-11.2558
▁جنوبی	-11.2559
普通	-11.2561
▁trib	-11.2562
▁benar	-11.2563
owa	-11.2564
یاں	-11.2564
▁отговор	-11.2564
▁wide	-11.2565
押し	-11.2567
▁งอย	-11.2567
▁mand	-11.2569
▁تقریبا	-11.257
▁armi	-11.2571
えて	-11.2572
اور	-11.2573
▁mwe	-11.2574
▁poca	-11.2574
亚马逊的	-11.2575
▁germania	-11.2575
▁آئی	-11.2575
▁ちょっと	-11.2575
▁kadın	-11.2576
sın	-11.2577
▁board	-11.2579
ترا	-11.258
นาน	-11.2582
▁อนก	-11.2583
▁века	-11.2584
기를	-11.2588
فعل	-11.2588
でしょうか	-11.2589
▁culture	-11.259
بھی	-11.259
▁เลย	-11.2594
ضافة	-11.2596
▁nghĩa	-11.2601
▁bulu	-11.2601
โค	-11.2602
しません	-11.2602
สอง	-11.2603
uego	-11.2605
었어	-11.2608
▁नन	-11.261
▁मच	-11.2612
lewa	-11.2614
▁لأ	-11.2619
▁کبھ	-11.262
▁arti	-11.2622
▁simpl	-11.2624
▁nacht	-11.2625
居	-11.2626
▁षक	-11.2626
▁gelen	-11.2628
▁چن	-11.263
▁gebruik	-11.2632
原因	-11.2636
仕	-11.2637
โรงเ	-11.264
▁ocupa	-11.264
▁ratio	-11.2642
jika	-11.2643
▁جز	-11.2646
▁clear	-11.2647
▁العراق	-11.2647
述	-11.2648
▁melakukan	-11.2648
sız	-11.2649
予	-11.265
規	-11.265
票	-11.2651
應	-11.2651
年的	-11.2651
盤	-11.2651
伊	-11.2651
總	-11.2651
奥	-11.2651
街	-11.2651
ī	-11.2651
ประโยชน	-11.2651
▁dưới	-11.2651
▁hochwertig	-11.2651
▁última	-11.2651
▁überhaupt	-11.2651
▁அக	-11.2651
▁ஆவ	-11.2651
▁平成年	-11.2651
誰	-11.2651
▁envío	-11.2651
▁noël	-11.2651
佛	-11.2651
创	-11.2651
静	-11.2651
▁district	-11.2651
▁terjadi	-11.2651
▁نخست	-11.2651
おり	-11.2651
影響	-11.2651
麻烦	-11.2651
▁biały	-11.2652
▁سفید	-11.2652
▁kembar	-11.2652
▁然后	-11.2652
▁bulunan	-11.2652
▁agosto	-11.2652
北京	-11.2652
▁monument	-11.2652
▁zorunda	-11.2652
▁souvent	-11.2652
▁여러	-11.2652
▁κάνω	-11.2652
▁smell	-11.2653
▁câble	-11.2653
ละคร	-11.2655
▁bỏ	-11.2655
▁seulement	-11.2655
▁کنید	-11.2655
▁taste	-11.2655
▁السعودية	-11.2656
▁الآن	-11.2656
▁مقاومت	-11.2657
▁puesto	-11.2657
▁الحياة	-11.2658
後の	-11.2658
▁بدون	-11.2658
▁yoktur	-11.2659
▁ออ	-11.2659
▁dép	-11.2659
▁described	-11.2659
นอก	-11.2659
▁doğu	-11.266
▁komplett	-11.266
ish	-11.266
日本語	-11.2661
▁artificial	-11.2661
▁bà	-11.2661
到着	-11.2662
▁решение	-11.2662
рад	-11.2664
▁roku	-11.2666
▁nivel	-11.2666
▁بلندی	-11.2666
▁งหว	-11.2667
▁livro	-11.2669
▁lista	-11.2669
▁moto	-11.2669
▁wegen	-11.2669
▁جانے	-11.267
งหน	-11.2671
▁adult	-11.2672
▁jones	-11.2672
▁pequeños	-11.2673
▁سیم	-11.2675
▁noi	-11.2676
▁감	-11.2676
инг	-11.2678
▁تعلم	-11.2678
▁گرد	-11.2678
▁искам	-11.2679
▁madre	-11.2679
なの	-11.2681
kı	-11.2681
bt	-11.2682
نك	-11.2683
▁چون	-11.2683
เธอ	-11.2683
通过	-11.2683
▁اصلی	-11.2685
اري	-11.2685
▁eff	-11.2686
ък	-11.2686
▁കയ	-11.2687
▁tú	-11.2688
тем	-11.2691
oals	-11.2691
▁hill	-11.2692
▁چیزی	-11.2694
▁saber	-11.2695
▁günstig	-11.2695
▁dick	-11.2695
polis	-11.27
▁اندر	-11.2701
tron	-11.2702
داری	-11.2705
▁artigos	-11.2706
جري	-11.2706
▁sık	-11.2707
▁pelos	-11.2709
▁ду	-11.271
ശ	-11.2711
▁имат	-11.2711
후	-11.2711
▁presiden	-11.2712
▁smaller	-11.2712
▁کړو	-11.2713
▁izin	-11.2714
▁montage	-11.2715
▁bias	-11.2716
▁geldi	-11.2717
약	-11.2718
▁งไม	-11.2718
▁kai	-11.2718
이는	-11.272
▁haki	-11.272
減	-11.2722
ensi	-11.2723
يض	-11.2724
сен	-11.2726
▁کړی	-11.2728
▁primero	-11.2728
نظر	-11.2729
▁low	-11.2732
durch	-11.2732
rf	-11.2733
▁لار	-11.2733
▁外	-11.2736
ٹا	-11.2736
ril	-11.2737
▁برو	-11.2738
▁montar	-11.2742
دير	-11.2742
なる	-11.2743
vyo	-11.2744
▁참	-11.2746
حصل	-11.275
▁ټولو	-11.2756
▁mund	-11.2756
▁cou	-11.2759
全部	-11.2759
▁wohl	-11.2759
rom	-11.2759
bon	-11.276
▁francia	-11.2761
นซ	-11.2763
目的	-11.2764
▁artículos	-11.2765
▁dollar	-11.2766
▁fuera	-11.2768
pil	-11.277
▁quy	-11.2773
▁marc	-11.2773
ssent	-11.2774
ارد	-11.2777
▁clube	-11.2783
▁minor	-11.2783
▁평	-11.2784
种	-11.2785
هذه	-11.2786
▁شرق	-11.2786
残念	-11.2786
ίδ	-11.2786
▁quelle	-11.2786
▁نش	-11.2786
▁كتب	-11.2791
▁beni	-11.2791
▁couleurs	-11.2793
▁นใน	-11.2794
▁งกล	-11.2794
สหร	-11.2795
突	-11.28
▁histoire	-11.2801
▁özellikle	-11.2802
应	-11.2802
属	-11.2804
▁นจ	-11.2807
ас	-11.2807
结	-11.2807
▁따라	-11.2807
▁temp	-11.2807
判	-11.2807
▁buiten	-11.2807
収	-11.2807
甘	-11.2808
耐	-11.2808
▁aquí	-11.2808
▁beschrieben	-11.2808
▁público	-11.2808
▁système	-11.2808
▁церковь	-11.2808
▁ஆட	-11.2808
▁melihat	-11.2808
▁човек	-11.2808
▁فرهنگ	-11.2808
▁مشهور	-11.2808
秒	-11.2808
▁équipe	-11.2808
▁организация	-11.2808
▁apprendimento	-11.2808
▁réussi	-11.2808
عتبر	-11.2808
印象	-11.2808
▁トムは	-11.2808
▁رکھتے	-11.2808
gebracht	-11.2808
▁hóa	-11.2808
▁mỹ	-11.2808
電影	-11.2808
▁mulai	-11.2808
部屋	-11.2809
▁gemacht	-11.2809
全然	-11.2809
▁فاصل	-11.2809
▁hearst	-11.2809
▁றந	-11.2809
▁조선인	-11.281
▁större	-11.281
▁sĩ	-11.2813
他們	-11.2814
▁investiga	-11.2814
دام	-11.2814
▁cami	-11.2815
▁mio	-11.2815
そ	-11.2816
κε	-11.2816
▁być	-11.2818
▁город	-11.2819
▁نسل	-11.282
ję	-11.2821
▁าใจ	-11.2822
▁incluso	-11.2825
▁சல	-11.2825
▁gitar	-11.2831
なし	-11.2831
ации	-11.2833
lijke	-11.2833
▁하는	-11.2837
жу	-11.2837
itur	-11.2839
▁الأس	-11.2844
▁中国	-11.2849
を購入	-11.285
▁فن	-11.2851
非常好	-11.2852
▁فرا	-11.2854
▁耐久性	-11.2854
enie	-11.2856
ffi	-11.2856
ați	-11.2857
▁นมา	-11.2857
のも	-11.2857
ضاء	-11.2858
▁றம	-11.286
larından	-11.286
▁access	-11.2862
▁veux	-11.2865
▁fler	-11.2866
▁용	-11.2868
▁fram	-11.2868
▁λίγο	-11.2869
▁español	-11.2872
▁oro	-11.2872
점	-11.2876
▁อไม	-11.288
داده	-11.288
▁بشر	-11.288
▁sino	-11.2881
vil	-11.2882
یج	-11.2883
льно	-11.2884
▁pont	-11.2884
▁างก	-11.2884
第一次	-11.2887
▁quer	-11.289
เลย	-11.289
▁trip	-11.2891
zonder	-11.2891
▁jalan	-11.2892
人の	-11.2893
▁ft	-11.2894
▁بت	-11.2894
ใหญ	-11.2896
▁realiz	-11.2897
نډ	-11.2897
ντα	-11.2898
▁stata	-11.2898
的东西	-11.2899
▁эта	-11.2901
▁oficial	-11.2901
▁ranger	-11.2901
▁tira	-11.2905
ован	-11.2906
になり	-11.2907
▁لر	-11.2908
▁فو	-11.2908
aient	-11.2908
離	-11.2909
▁acord	-11.291
▁pages	-11.2911
jad	-11.2912
cente	-11.2914
際に	-11.2914
▁trebui	-11.2915
▁metro	-11.2915
どう	-11.2918
شید	-11.2918
▁nationale	-11.292
▁عوام	-11.2922
▁lun	-11.2923
▁tape	-11.2927
▁شکست	-11.2927
roll	-11.2927
onal	-11.2929
راء	-11.2929
خذ	-11.293
▁orada	-11.2931
▁н	-11.2933
▁adı	-11.2935
▁api	-11.2936
فة	-11.2939
▁utilise	-11.294
あまり	-11.294
▁rose	-11.2941
فكر	-11.2944
▁कत	-11.2944
illi	-11.2945
▁قومی	-11.2946
▁返品	-11.2948
جز	-11.2949
样	-11.295
▁번	-11.2952
▁再	-11.2953
▁país	-11.2955
▁aka	-11.2955
▁continu	-11.2955
يانو	-11.2957
hấp	-11.2957
▁تس	-11.2959
▁rend	-11.2959
ทหาร	-11.296
ony	-11.296
▁جيد	-11.2961
▁св	-11.2961
тон	-11.2962
▁παρά	-11.2962
满	-11.2962
▁nyumba	-11.2963
جی	-11.2963
黒	-11.2964
排	-11.2965
营	-11.2965
▁vivi	-11.2965
印	-11.2966
經	-11.2966
観	-11.2966
료	-11.2966
攻	-11.2966
拍	-11.2966
爆	-11.2966
赞	-11.2966
▁inglés	-11.2966
▁intérieur	-11.2966
▁natürlich	-11.2966
▁tiết	-11.2966
▁παιδιά	-11.2966
▁இற	-11.2966
▁ഉപ	-11.2966
▁งเศส	-11.2966
▁민원식	-11.2966
春	-11.2966
존	-11.2966
▁network	-11.2966
▁μπορώ	-11.2966
▁switch	-11.2966
▁себе	-11.2966
▁così	-11.2966
▁انځر	-11.2966
▁นอกจาก	-11.2966
▁메리	-11.2966
▁tokyo	-11.2966
▁управления	-11.2966
▁division	-11.2967
▁언어	-11.2967
▁всё	-11.2967
▁league	-11.2967
▁jimmy	-11.2967
▁немного	-11.2967
▁تلاش	-11.2967
▁något	-11.2967
▁нищо	-11.2967
音乐	-11.2967
▁thả	-11.2967
▁κάνουν	-11.2967
لد	-11.2967
▁مسجد	-11.2967
▁wereld	-11.2967
▁omgivning	-11.2967
卖家	-11.2968
▁tocar	-11.2968
電話	-11.2968
μι	-11.2968
▁نحن	-11.2968
▁update	-11.2968
すれば	-11.2968
▁nổ	-11.2968
▁делать	-11.2968
鞋子	-11.2969
▁اردو	-11.2969
โปร	-11.2969
▁втор	-11.297
▁building	-11.297
▁اعلان	-11.297
صادر	-11.2971
▁ganze	-11.2971
▁معظم	-11.2971
▁college	-11.2972
▁نمون	-11.2972
▁nueva	-11.2972
▁strong	-11.2973
லர	-11.2973
▁توجه	-11.2973
▁dintr	-11.2974
▁бяха	-11.2975
▁ځان	-11.2975
▁utile	-11.2975
▁habitantes	-11.2976
▁funcionar	-11.2979
ùng	-11.2979
ими	-11.298
▁așa	-11.298
▁nem	-11.2983
▁locu	-11.2983
▁مكان	-11.2984
▁hue	-11.2986
▁องค	-11.2986
▁неща	-11.2987
▁region	-11.2987
▁konu	-11.2987
だが	-11.299
▁others	-11.299
▁อสร	-11.299
届いた	-11.2991
▁pick	-11.2991
▁ней	-11.2992
roep	-11.2992
ٹھ	-11.2993
▁publica	-11.2994
kul	-11.2996
▁yaşa	-11.2999
ちゃんと	-11.3
▁datang	-11.3001
是我	-11.3002
▁milit	-11.3003
喜	-11.3004
▁express	-11.3004
▁đàn	-11.3005
สต	-11.3006
▁vou	-11.3007
▁پیر	-11.3007
kini	-11.3007
nut	-11.301
ongo	-11.3011
▁กอย	-11.3011
を受け	-11.3012
یشن	-11.3013
rais	-11.3013
▁reviews	-11.3014
نامه	-11.3014
selon	-11.3014
▁راست	-11.3023
▁fc	-11.3024
▁första	-11.3024
적이	-11.3025
▁систем	-11.3026
▁mji	-11.3028
▁собствен	-11.3029
もなく	-11.303
▁heure	-11.303
▁weet	-11.3031
穴	-11.3032
▁brit	-11.3032
nța	-11.3032
▁paper	-11.3034
طلق	-11.3037
▁çek	-11.3038
▁sad	-11.3039
직	-11.304
like	-11.3042
عقد	-11.3042
ayant	-11.3043
양	-11.3043
▁leid	-11.3043
▁continue	-11.3044
รวม	-11.3045
壊れ	-11.3046
▁dead	-11.3046
▁paulo	-11.3046
pra	-11.3046
supra	-11.3048
▁казва	-11.305
▁vile	-11.3051
▁aur	-11.3051
▁corta	-11.3052
▁politik	-11.3053
▁شول	-11.3053
อธ	-11.3054
ابة	-11.3057
ност	-11.3058
▁geç	-11.3058
▁система	-11.3064
▁obwoh	-11.3064
▁ماري	-11.3064
▁حمل	-11.3066
ight	-11.3066
▁第	-11.3069
▁wer	-11.307
ιτ	-11.307
▁اعظم	-11.3082
▁massa	-11.3082
▁menga	-11.3084
▁منها	-11.3084
▁hebt	-11.3085
▁rio	-11.3085
لى	-11.3086
▁رسول	-11.3087
切り	-11.3088
kları	-11.3089
▁mater	-11.3089
kov	-11.3091
▁diff	-11.3095
寝	-11.3095
▁colle	-11.3096
▁isto	-11.3097
iwa	-11.3098
▁volume	-11.31
▁corte	-11.3103
▁putin	-11.3103
▁cop	-11.3107
▁correcto	-11.3109
▁seja	-11.311
ever	-11.3112
▁อป	-11.3112
▁sho	-11.3113
ats	-11.3113
▁tien	-11.3114
▁makan	-11.3114
▁quoi	-11.3116
▁นา	-11.3116
top	-11.3117
▁सप	-11.3117
▁says	-11.3117
▁طب	-11.3117
▁ئي	-11.3117
▁लर	-11.3119
kü	-11.3119
ości	-11.312
▁pair	-11.3123
華	-11.3127
異	-11.3127
투	-11.3127
视	-11.3127
景	-11.3128
击	-11.3128
季	-11.3128
索	-11.3128
▁omni	-11.3128
酸	-11.3128
師	-11.3128
▁descripción	-11.3128
▁nhiệm	-11.3128
▁nhật	-11.3128
▁política	-11.3128
▁resistente	-11.3128
▁tampoco	-11.3128
▁vật	-11.3128
▁μαζί	-11.3128
▁конечно	-11.3128
▁پانچ	-11.3128
伤	-11.3128
李	-11.3128
沙	-11.3128
阅读	-11.3128
▁pourquoi	-11.3128
▁πριν	-11.3128
▁ممکن	-11.3128
勒	-11.3128
大きな	-11.3128
▁madrid	-11.3128
压	-11.3128
靴	-11.3128
▁mortuus	-11.3128
▁minggu	-11.3128
แลนด	-11.3128
▁angekommen	-11.3128
ゲーム	-11.3128
όπου	-11.3128
▁mbili	-11.3128
▁فیلم	-11.3128
▁smith	-11.3128
▁метод	-11.3128
▁pronto	-11.3128
baixo	-11.3128
▁chơi	-11.3128
▁วนใหญ	-11.3128
گذار	-11.3128
▁тепер	-11.3129
▁watoto	-11.3129
▁impression	-11.3129
▁fedha	-11.3129
▁construction	-11.3129
▁tượng	-11.313
▁معمول	-11.313
▁replacement	-11.313
▁مرگ	-11.3131
无法	-11.3131
вил	-11.3133
▁اظ	-11.3134
大學	-11.3135
▁unaweza	-11.3135
全て	-11.3135
recht	-11.3136
▁numele	-11.3137
дов	-11.3137
▁perfecta	-11.3137
▁들	-11.3137
مد	-11.3138
▁spin	-11.3139
▁달	-11.3139
▁consum	-11.3139
hiri	-11.314
▁trying	-11.314
τού	-11.3141
▁partes	-11.3141
出版	-11.3143
▁ามา	-11.3144
▁nici	-11.3144
▁raad	-11.3145
▁บส	-11.3145
▁hoje	-11.3146
rial	-11.3146
▁กคน	-11.3146
▁عد	-11.3147
▁create	-11.3147
ศร	-11.3149
▁gelir	-11.315
mentre	-11.3151
▁آمده	-11.3152
▁erste	-11.3153
出演	-11.3153
▁kot	-11.3154
▁political	-11.3156
னவ	-11.3158
▁कठ	-11.3159
▁bài	-11.3163
▁dam	-11.3163
▁لديهم	-11.3164
▁distan	-11.3166
▁bado	-11.3167
▁server	-11.3167
houden	-11.3167
▁majoritate	-11.3168
ária	-11.3168
สนาม	-11.3169
▁ภาค	-11.3169
▁avea	-11.3171
cm	-11.3172
▁ระ	-11.3174
▁vos	-11.3175
▁records	-11.3178
▁droit	-11.3179
▁بندی	-11.3181
買	-11.3183
ует	-11.3185
▁aplica	-11.3186
ият	-11.3186
▁hapo	-11.3187
▁lige	-11.3187
lıyor	-11.3188
▁salt	-11.3189
▁сан	-11.3191
中に	-11.3191
▁услуги	-11.3192
▁دین	-11.3193
▁начин	-11.3194
▁filme	-11.3194
ому	-11.3196
▁hijo	-11.3196
▁имеет	-11.3197
▁leven	-11.3199
ước	-11.3202
▁ټ	-11.3204
只是	-11.3204
vall	-11.3205
▁jul	-11.3205
тър	-11.3205
gla	-11.3206
▁проблем	-11.3207
عام	-11.3208
olika	-11.3208
노	-11.3209
▁män	-11.3209
▁tweede	-11.3209
不太	-11.3211
▁문	-11.3215
▁pus	-11.3216
▁งของ	-11.3216
발	-11.3217
無く	-11.3221
▁abge	-11.3221
دعم	-11.3222
▁conf	-11.3224
▁hac	-11.3225
▁عرب	-11.3227
습니다	-11.323
▁posi	-11.3232
เวลา	-11.3234
शक	-11.3234
วร	-11.3234
είς	-11.3238
思い	-11.324
▁creat	-11.3243
▁lieu	-11.3244
▁atra	-11.3251
▁encanta	-11.3253
▁وکړ	-11.3253
▁norr	-11.3253
گل	-11.3255
hus	-11.3256
▁doing	-11.3257
▁print	-11.3258
▁dood	-11.3262
▁blue	-11.3263
جمل	-11.3265
▁menge	-11.3265
kleri	-11.3265
uve	-11.3266
▁afin	-11.3267
▁خانه	-11.3268
▁politie	-11.3269
▁dici	-11.327
tium	-11.327
▁وني	-11.327
ثناء	-11.3271
抗	-11.3271
oper	-11.3273
▁march	-11.3274
▁三	-11.3276
▁japon	-11.3279
▁ساز	-11.3281
終	-11.3283
pita	-11.3285
▁seis	-11.3286
▁اشار	-11.3286
▁عبد	-11.3287
▁الفن	-11.3288
府	-11.3291
岸	-11.3291
宣	-11.3291
按	-11.3291
领	-11.3291
刺	-11.3292
勢	-11.3292
體	-11.3292
篇	-11.3292
▁außer	-11.3292
▁ejemplo	-11.3292
▁kisheria	-11.3292
▁savaş	-11.3292
▁thuật	-11.3292
▁ziemlich	-11.3292
▁đất	-11.3292
▁같이	-11.3292
髪	-11.3292
▁encuentra	-11.3292
▁kidogo	-11.3292
▁سلطنت	-11.3292
▁결국	-11.3292
すごく	-11.3292
▁معروف	-11.3292
▁ذریع	-11.3292
▁ứng	-11.3292
▁food	-11.3292
▁پارٹی	-11.3292
▁dakika	-11.3292
系列	-11.3292
▁elimina	-11.3292
▁연합	-11.3292
▁جانتے	-11.3292
品質	-11.3293
▁غلط	-11.3293
引き	-11.3293
▁रमण	-11.3293
▁verpackt	-11.3293
▁خاندان	-11.3293
▁business	-11.3293
▁villa	-11.3294
▁будут	-11.3295
▁kecil	-11.3295
▁اخرى	-11.3295
▁остров	-11.3296
▁agora	-11.3296
▁بیٹ	-11.3296
다가	-11.3296
▁الحكومة	-11.3296
▁работы	-11.3296
個人	-11.3296
▁lẽ	-11.3297
▁پدر	-11.3297
▁tuổi	-11.3297
▁работу	-11.3297
▁цвет	-11.3297
▁البر	-11.3298
▁aantal	-11.3298
▁phase	-11.3299
θεί	-11.3301
▁этих	-11.3302
▁soru	-11.3303
▁neue	-11.3305
▁quiero	-11.3305
▁αρχ	-11.3305
▁tutto	-11.3305
▁суд	-11.3307
▁regi	-11.3307
पर	-11.3308
echter	-11.3308
taka	-11.3308
▁شدند	-11.3308
▁carton	-11.3309
▁fund	-11.3309
▁einge	-11.3309
▁மட	-11.3309
▁큰	-11.3309
▁motiv	-11.3312
▁ژباړ	-11.3312
ța	-11.3316
▁kanada	-11.3317
▁clip	-11.3317
eurs	-11.3318
▁นจะ	-11.3318
▁defini	-11.332
چه	-11.332
▁யக	-11.332
▁teori	-11.3321
راد	-11.3321
▁价格	-11.3321
зов	-11.3322
▁utilizar	-11.3324
▁giữa	-11.3325
▁iliyo	-11.3326
▁chiar	-11.3327
▁stock	-11.3327
安心	-11.3327
▁jan	-11.3328
عين	-11.3329
▁noor	-11.333
▁cest	-11.3331
ores	-11.3335
チャ	-11.3337
▁devolver	-11.3338
บค	-11.3339
パー	-11.334
cía	-11.3341
oz	-11.3341
حف	-11.3343
рак	-11.3343
▁ait	-11.3344
รถไฟ	-11.3344
astro	-11.3345
fan	-11.3345
声音	-11.3348
kker	-11.3348
▁خطر	-11.3349
ρη	-11.3349
asse	-11.3349
▁hoa	-11.3352
னத	-11.3352
▁yaz	-11.3352
▁respect	-11.3353
▁attentes	-11.3353
▁town	-11.3353
ける	-11.3354
▁common	-11.3356
مند	-11.3358
很大	-11.336
▁trai	-11.3362
▁доста	-11.3362
▁noite	-11.3365
▁قا	-11.3366
naweza	-11.3366
▁komen	-11.337
▁ษย	-11.337
▁letter	-11.3371
يج	-11.3372
▁可以	-11.3372
▁hali	-11.3375
valt	-11.3375
▁현	-11.3376
▁صلی	-11.3376
▁ะ	-11.3376
▁toen	-11.3376
▁buenos	-11.3377
きます	-11.3377
▁أد	-11.3377
▁frau	-11.3378
교	-11.338
tation	-11.338
▁المس	-11.3381
持って	-11.3382
فهم	-11.3385
ём	-11.3385
▁huu	-11.3385
분	-11.3385
กรรม	-11.3387
ザ	-11.3391
▁μπορού	-11.3391
ولاية	-11.3394
▁sıra	-11.3394
εμ	-11.3397
よい	-11.3397
plat	-11.3397
香り	-11.3398
▁halt	-11.3398
essa	-11.3399
▁นข	-11.3399
▁வல	-11.3404
▁กําหนด	-11.3404
▁چو	-11.3405
が必要	-11.3405
نان	-11.3406
▁พร	-11.3406
▁oled	-11.3407
▁กน	-11.3407
âr	-11.3407
▁شاعر	-11.3407
هما	-11.3408
▁황	-11.3408
▁ใจ	-11.3409
โรง	-11.3409
ized	-11.341
▁टक	-11.341
یلی	-11.3411
▁verde	-11.3415
▁essa	-11.3416
▁canal	-11.3422
▁carl	-11.3423
นาม	-11.3427
たので	-11.3428
▁difficult	-11.3428
了解	-11.3429
▁قسم	-11.3429
طة	-11.343
▁kum	-11.3432
ụ	-11.3432
▁تور	-11.3433
▁வண	-11.3436
購入しましたが	-11.3436
▁สเซ	-11.3437
▁gente	-11.3438
iers	-11.344
▁succes	-11.344
▁encontra	-11.3443
一年	-11.3444
かもしれません	-11.3445
περ	-11.3446
تز	-11.3448
▁قص	-11.3449
っと	-11.345
avad	-11.345
▁созда	-11.3451
▁follow	-11.3451
らず	-11.3453
▁зна	-11.3453
▁ควร	-11.3454
▁ورکړ	-11.3456
łu	-11.3456
▁าก	-11.3456
供	-11.3457
宗	-11.3458
별	-11.3458
แผน	-11.3458
磨	-11.3458
돌	-11.3458
石家庄	-11.3458
紙	-11.3458
립	-11.3458
▁mất	-11.3458
▁résultat	-11.3458
▁sanırım	-11.3458
▁türkiye	-11.3458
▁vời	-11.3458
▁đẹp	-11.3458
▁αυτές	-11.3458
▁επειδή	-11.3458
▁жизни	-11.3458
▁информация	-11.3458
▁сейчас	-11.3458
▁آبشار	-11.3458
▁موسیقی	-11.3458
▁ยนแปลง	-11.3458
봉	-11.3458
▁betyder	-11.3458
▁الحداثة	-11.3458
▁음악	-11.3458
妹	-11.3458
暴	-11.3458
本当に	-11.3458
贴	-11.3458
▁répond	-11.3458
▁sekitar	-11.3458
▁tây	-11.3458
▁آمریکا	-11.3458
協	-11.3458
賞	-11.3458
▁locuitori	-11.3458
▁require	-11.3458
▁kuzey	-11.3458
▁sleep	-11.3458
▁そして	-11.3458
▁website	-11.3458
▁biashara	-11.3458
物理學	-11.3459
▁hết	-11.3459
▁século	-11.3459
▁interior	-11.3459
▁gefällt	-11.3459
決定	-11.3459
気持ち	-11.3459
▁spor	-11.3459
認為	-11.3459
▁dolarów	-11.3459
▁tekrar	-11.346
▁potencia	-11.346
▁einzige	-11.346
▁அவன	-11.346
خي	-11.3461
▁تیار	-11.3461
▁começo	-11.3461
▁magnet	-11.3461
szy	-11.3461
▁ignor	-11.3462
▁perto	-11.3463
انت	-11.3463
▁знаете	-11.3464
▁آئے	-11.3464
▁الخاصة	-11.3465
そのまま	-11.3465
▁destek	-11.3466
▁juego	-11.3466
▁memper	-11.3467
졌다	-11.3467
▁maken	-11.3467
▁funktion	-11.3467
▁ただし	-11.3467
▁kupata	-11.3468
▁کنار	-11.3469
▁dài	-11.3469
▁الملك	-11.3469
▁cina	-11.3469
нг	-11.347
▁koha	-11.347
▁söder	-11.347
στα	-11.3471
дали	-11.3472
▁страна	-11.3472
▁making	-11.3473
rez	-11.3473
▁بودند	-11.3474
▁restaurant	-11.3474
▁بڑھ	-11.3474
вор	-11.3475
▁chết	-11.3475
▁comer	-11.3476
▁veni	-11.3477
ابت	-11.3477
▁signal	-11.3477
▁بازار	-11.3479
کٹ	-11.3479
▁venía	-11.3479
▁줄	-11.3479
▁история	-11.348
让人	-11.3484
ائية	-11.3485
▁zamanda	-11.3485
▁还是	-11.3486
▁vastu	-11.3486
調整	-11.3487
ตอบ	-11.3488
جاب	-11.349
▁fabric	-11.3491
ชนะ	-11.3498
ライト	-11.3499
▁세력	-11.35
▁propos	-11.3503
ffen	-11.3503
▁بحث	-11.3505
pat	-11.3505
ในว	-11.3506
▁งช	-11.3507
liza	-11.3508
spect	-11.3508
▁物流	-11.3509
pc	-11.3511
▁अद	-11.3511
▁свет	-11.3511
▁erg	-11.3512
▁maakt	-11.3513
▁อไป	-11.3516
▁آف	-11.3518
mur	-11.3522
▁programu	-11.3523
せる	-11.3525
ए	-11.3526
▁serv	-11.3527
▁ago	-11.3528
英文	-11.3528
มากข	-11.3529
εία	-11.353
سلام	-11.3532
onia	-11.3532
टन	-11.3534
▁econom	-11.3534
▁guten	-11.3538
▁خل	-11.3538
▁کلن	-11.3538
▁debut	-11.3538
ници	-11.354
▁eram	-11.354
کول	-11.3543
uren	-11.3543
▁kids	-11.3544
▁тома	-11.3544
▁fino	-11.3544
ยา	-11.3545
▁mix	-11.3545
▁yi	-11.3546
軽	-11.3547
ックス	-11.355
▁mann	-11.3552
▁eg	-11.3552
▁wazi	-11.3555
sema	-11.3555
▁getir	-11.3556
청	-11.3559
きました	-11.3561
返品	-11.3561
▁afrika	-11.3563
使っています	-11.3566
▁instant	-11.3566
▁paz	-11.3569
▁اقل	-11.3569
▁另外	-11.357
▁แอ	-11.3572
ในร	-11.3573
苏	-11.3573
▁arts	-11.3574
▁khỏ	-11.3575
tiap	-11.3575
▁soy	-11.3576
日に	-11.3577
▁больш	-11.358
▁اج	-11.3581
▁pau	-11.3581
▁permite	-11.3582
imus	-11.3585
▁جھ	-11.3585
の方	-11.3586
▁lava	-11.3587
δρ	-11.3587
ук	-11.3589
还有	-11.359
▁estas	-11.3592
▁kleinen	-11.3596
▁перед	-11.3596
ないです	-11.3597
ана	-11.3598
▁quien	-11.3598
▁หย	-11.3599
▁dvd	-11.3599
اوي	-11.36
▁salva	-11.36
▁resp	-11.3601
▁aqua	-11.3602
▁leer	-11.3605
льных	-11.3606
▁iam	-11.3607
arse	-11.3608
จะเป	-11.3609
▁retir	-11.3612
这样的	-11.3613
坏了	-11.3615
że	-11.3617
▁بیش	-11.3617
▁seria	-11.3619
▁தற	-11.3619
▁aby	-11.362
付き	-11.3621
sson	-11.3623
組	-11.3625
▁kong	-11.3626
▁आई	-11.3626
説	-11.3626
認	-11.3627
級	-11.3627
委	-11.3627
egi	-11.3627
▁object	-11.3627
져	-11.3627
شناس	-11.3627
博	-11.3628
▁yaşam	-11.3628
玩	-11.3628
▁longtemps	-11.3628
▁maintenant	-11.3628
▁polícia	-11.3628
▁shirika	-11.3628
▁tối	-11.3628
▁vielleicht	-11.3628
▁δουλειά	-11.3628
テレビ	-11.3628
紧	-11.3628
▁доклад	-11.3628
▁مطالع	-11.3628
▁مکمل	-11.3628
吉	-11.3628
なかなか	-11.3628
汗	-11.3628
▁mexico	-11.3628
杀	-11.3628
▁ограничен	-11.3628
▁люди	-11.3628
ตลอด	-11.3628
▁igitur	-11.3628
▁действительно	-11.3628
▁големи	-11.3628
ahkan	-11.3628
参考	-11.3628
左右	-11.3628
▁ничего	-11.3628
のもの	-11.3628
運動	-11.3628
▁فعالیت	-11.3629
音楽	-11.3629
交通	-11.3629
▁چشم	-11.3629
进行	-11.3629
▁تقريبا	-11.363
▁autobus	-11.363
▁concert	-11.3631
▁cuesta	-11.3631
▁complex	-11.3631
하면서	-11.3631
▁digunakan	-11.3631
▁cambio	-11.3631
▁quatro	-11.3632
▁ہوتے	-11.3632
▁นบ	-11.3632
▁างๆ	-11.3632
کړ	-11.3633
那个	-11.3633
▁florida	-11.3634
▁tả	-11.3634
▁bestellen	-11.3634
▁refund	-11.3634
▁rusia	-11.3635
پاره	-11.3635
▁εισ	-11.3636
▁facilement	-11.3636
гледа	-11.3637
▁پڑھ	-11.3637
▁يقول	-11.3638
▁fais	-11.3638
▁것으로	-11.3639
▁dixit	-11.3642
▁kelas	-11.3643
ائن	-11.3643
▁лучше	-11.3645
▁بنیادی	-11.3645
ωσ	-11.3648
สภา	-11.365
ايي	-11.365
▁apoi	-11.3651
▁gun	-11.3652
given	-11.3653
▁حرف	-11.3655
▁yaptığı	-11.3657
oon	-11.3658
写的	-11.3659
▁couldn	-11.366
▁इम	-11.366
لر	-11.3662
▁heat	-11.3664
▁tend	-11.3665
▁sering	-11.3666
▁commercial	-11.3666
سلط	-11.3666
press	-11.3667
▁först	-11.3669
▁nili	-11.3669
一度	-11.3669
▁whole	-11.3669
entras	-11.3669
▁الخط	-11.367
也没有	-11.3671
▁вечер	-11.3673
▁aumenta	-11.3674
▁leo	-11.3676
روغ	-11.3678
▁डल	-11.3679
▁konuşma	-11.3679
hren	-11.3679
▁arbeit	-11.3682
▁سيد	-11.3682
▁muita	-11.3683
▁ira	-11.3686
▁ibi	-11.3689
▁état	-11.369
ลาย	-11.369
मस	-11.369
จํา	-11.3691
▁νέα	-11.3691
▁ту	-11.3694
داء	-11.3694
▁جهانی	-11.3695
▁presta	-11.3695
liselt	-11.3695
▁nje	-11.3697
▁digital	-11.3697
پا	-11.3698
▁său	-11.3699
ionis	-11.37
▁север	-11.37
▁टम	-11.3702
▁mid	-11.3704
▁손	-11.3704
يلي	-11.3709
تقدم	-11.3709
▁दस	-11.3711
▁durum	-11.3711
รถ	-11.3714
▁الحر	-11.3715
lerden	-11.3716
▁energi	-11.3718
京	-11.3721
ドラ	-11.3722
▁مور	-11.3722
▁الأم	-11.3725
صبح	-11.3727
▁fransk	-11.3728
▁ยวข	-11.3729
ță	-11.3729
▁block	-11.373
▁fro	-11.373
好き	-11.3731
▁organiz	-11.3732
できます	-11.3735
▁tank	-11.3735
笑	-11.3737
▁二	-11.3739
只能	-11.3739
μένα	-11.3742
▁случае	-11.3742
▁والأ	-11.3744
▁現	-11.3744
چې	-11.3748
▁hör	-11.3749
lichen	-11.3749
全く	-11.3749
ٹری	-11.3749
▁ترک	-11.3751
สถาน	-11.3754
يلة	-11.3755
có	-11.3755
▁회	-11.3757
増	-11.376
▁resulta	-11.376
xic	-11.376
▁دوی	-11.3761
用的	-11.3763
نر	-11.3763
овете	-11.3765
not	-11.377
▁되	-11.3772
gy	-11.3773
lerinden	-11.3773
▁часть	-11.3774
▁یافت	-11.3774
бан	-11.3774
▁passage	-11.3775
ffe	-11.3778
▁تخم	-11.378
arlo	-11.3781
▁بش	-11.3782
▁получи	-11.3782
▁自	-11.3782
ẻ	-11.3784
ctu	-11.3784
nehmen	-11.3785
قال	-11.3788
ชาย	-11.3788
nica	-11.3788
▁كذلك	-11.3789
teurs	-11.3789
▁kaldı	-11.379
▁rap	-11.3791
لان	-11.3792
▁sorun	-11.3793
ünü	-11.3795
▁comes	-11.3795
满意	-11.3796
幅	-11.3797
▁обще	-11.3797
屋	-11.3797
pada	-11.3797
▁learn	-11.3798
จบ	-11.3799
▁χρόνο	-11.3799
uan	-11.3799
▁issues	-11.3799
飛	-11.38
唱	-11.38
歩	-11.38
兴	-11.38
測	-11.38
游	-11.38
龍	-11.38
▁légère	-11.38
俄罗斯	-11.38
ظاهر	-11.38
▁ensemble	-11.38
▁geschmack	-11.38
▁kopfhörer	-11.38
▁praefectura	-11.38
▁quyết	-11.38
▁título	-11.38
▁магазин	-11.38
▁دوبارہ	-11.38
▁โปรแกรม	-11.38
▁로데론	-11.38
всегда	-11.38
อาคาร	-11.38
▁membuat	-11.38
▁tribunal	-11.38
▁βρίσκ	-11.38
▁йорк	-11.38
倍	-11.38
裡	-11.38
▁osób	-11.38
▁κάτω	-11.38
▁bugün	-11.38
▁oameni	-11.38
ほぼ	-11.38
▁tête	-11.38
▁stoff	-11.38
▁minute	-11.38
政策	-11.38
▁pouco	-11.38
▁todavía	-11.38
▁amazing	-11.3801
▁cuidado	-11.3801
εργ	-11.3801
▁persoon	-11.3801
▁거야	-11.3801
mod	-11.3802
▁المنزل	-11.3802
hri	-11.3802
毎日	-11.3802
▁lượng	-11.3803
▁องราว	-11.3803
وصول	-11.3804
全国	-11.3804
▁ortaya	-11.3804
▁praktisch	-11.3805
▁lalu	-11.3805
▁binnen	-11.3806
性能	-11.3806
▁kız	-11.3807
▁sonunda	-11.3808
▁περισσότερ	-11.3809
▁victoria	-11.381
▁avut	-11.381
▁além	-11.3811
▁probado	-11.3811
▁tempat	-11.3812
▁raison	-11.3812
▁cross	-11.3813
▁cook	-11.3814
▁secund	-11.3814
حكم	-11.3814
▁godi	-11.3814
▁bina	-11.3815
▁wifi	-11.3816
▁ann	-11.3816
▁slow	-11.3817
▁حين	-11.3819
ジャ	-11.3821
vano	-11.3822
▁โร	-11.3825
▁tò	-11.3825
▁مراد	-11.3827
punt	-11.3831
▁interes	-11.3831
▁questa	-11.3832
ья	-11.3833
▁rosa	-11.3834
▁اختیار	-11.3834
▁drink	-11.3835
▁شاخ	-11.3836
簡単に	-11.3836
如	-11.3837
rima	-11.3839
ун	-11.384
▁view	-11.384
▁dolar	-11.3841
▁respectiv	-11.3841
لع	-11.3842
▁swoje	-11.3843
▁lima	-11.3844
学部	-11.3844
ezi	-11.3846
▁usage	-11.3847
▁คว	-11.3847
▁ถนน	-11.3848
▁reduc	-11.3848
▁第一次	-11.3848
นหน	-11.3849
▁zote	-11.3853
▁كثير	-11.3854
年度	-11.3856
▁如	-11.3856
▁pose	-11.3857
یع	-11.3859
▁histori	-11.3859
▁nghiên	-11.3859
▁vali	-11.3861
▁см	-11.3862
▁charger	-11.3862
状態で	-11.3863
inho	-11.3865
ić	-11.3867
▁mr	-11.3867
▁który	-11.3867
طاق	-11.3868
▁vul	-11.3869
▁şeyler	-11.3869
▁наше	-11.3869
▁เอา	-11.387
▁keer	-11.3871
ټي	-11.3871
▁хи	-11.3872
дан	-11.3872
める	-11.3873
▁عربی	-11.3873
▁oto	-11.3874
โล	-11.3875
▁parce	-11.3875
ала	-11.3875
▁wort	-11.3878
قى	-11.3879
▁fem	-11.3881
sper	-11.3881
▁gesch	-11.3884
と思い	-11.3885
▁prova	-11.3887
ะอ	-11.3887
▁مقال	-11.3887
▁quart	-11.3889
▁데	-11.3889
diesen	-11.3891
▁สําน	-11.3894
▁bare	-11.3895
▁对于	-11.3897
▁commander	-11.3897
spar	-11.3898
▁agit	-11.3903
▁即	-11.3903
▁général	-11.3905
▁λ	-11.3915
▁kwani	-11.3915
▁klasse	-11.3916
メーカー	-11.3918
хме	-11.3918
▁cord	-11.3918
初めて	-11.3919
τικά	-11.3919
бел	-11.3922
▁satisfait	-11.3923
키	-11.3925
โลก	-11.3925
τερ	-11.3927
▁greg	-11.3929
象	-11.3931
▁мест	-11.3931
sión	-11.3934
плат	-11.3934
▁وج	-11.3936
distribu	-11.3936
▁merkezi	-11.3936
▁sap	-11.3939
▁certains	-11.3939
▁सच	-11.3939
▁บบ	-11.3941
▁secar	-11.3945
▁means	-11.3947
▁nieuw	-11.3947
▁มาร	-11.3951
rait	-11.3951
ありません	-11.3952
▁pis	-11.3956
ène	-11.3958
▁değiş	-11.3958
schein	-11.3958
▁etki	-11.396
▁senin	-11.3965
▁quelqu	-11.3966
пор	-11.3966
经	-11.3968
وجود	-11.3968
▁เกาะ	-11.3969
ssé	-11.3969
▁victor	-11.397
وې	-11.3971
▁primi	-11.3971
▁bois	-11.3971
▁البحر	-11.3971
观	-11.3972
▁happen	-11.3972
▁ایرانی	-11.3974
杯	-11.3974
納	-11.3975
標	-11.3975
▁وما	-11.3975
若	-11.3975
录	-11.3976
특	-11.3976
幕	-11.3976
แนะนํา	-11.3976
▁attribut	-11.3976
▁britannica	-11.3976
▁chọn	-11.3976
▁exempel	-11.3976
▁instructions	-11.3976
▁muhimu	-11.3976
▁vikipedi	-11.3976
▁şehir	-11.3976
▁alguien	-11.3976
▁boîte	-11.3976
▁occasion	-11.3976
▁profesor	-11.3976
▁thêm	-11.3976
▁çoğu	-11.3976
町	-11.3976
▁sekarang	-11.3976
▁πίσω	-11.3976
塞	-11.3976
▁itself	-11.3976
▁อร	-11.3976
▁gái	-11.3976
▁ययन	-11.3976
▁جگہ	-11.3976
甚至	-11.3976
▁regering	-11.3976
主义	-11.3976
▁facebook	-11.3976
▁وسلم	-11.3976
衣服	-11.3976
▁nostri	-11.3976
▁리치	-11.3976
hôm	-11.3976
▁opinion	-11.3976
▁ساختمان	-11.3977
▁verschillen	-11.3977
如何	-11.3977
▁aç	-11.3977
▁geniş	-11.3977
英国	-11.3977
▁explica	-11.3977
▁самы	-11.3977
▁recibido	-11.3977
stelle	-11.3977
沒有	-11.3977
▁ولایت	-11.3977
満足です	-11.3977
▁achter	-11.3978
▁vệ	-11.3978
▁ویل	-11.3978
▁города	-11.3978
▁أل	-11.3979
当时	-11.3979
成立	-11.398
▁terrestr	-11.398
▁چهار	-11.398
物流	-11.3981
▁zna	-11.3981
▁தனர	-11.3982
▁ปแบบ	-11.3982
▁travel	-11.3982
▁papel	-11.3982
▁đông	-11.3983
▁التنظيم	-11.3983
▁läbi	-11.3984
ują	-11.3984
▁akku	-11.3985
▁note	-11.3985
▁لوی	-11.3985
▁warum	-11.3986
▁آید	-11.3987
▁μπορείς	-11.3987
▁سانت	-11.3988
▁οποία	-11.3989
mayı	-11.3992
看看	-11.3992
▁eş	-11.3992
▁ลปะ	-11.3993
かく	-11.3993
▁vamos	-11.3994
▁좀	-11.3995
▁loves	-11.3995
▁reading	-11.3995
▁後	-11.3996
φα	-11.3997
▁ணப	-11.3998
▁study	-11.4
▁мери	-11.4002
ième	-11.4002
▁хо	-11.4004
▁做工	-11.4006
gate	-11.4007
▁gr	-11.4007
▁καλό	-11.4007
▁قائم	-11.4008
▁grill	-11.4009
ぐらい	-11.4009
▁shin	-11.401
▁jongen	-11.4011
▁finans	-11.4011
▁gles	-11.4012
▁член	-11.4012
▁크	-11.4012
▁anlat	-11.4013
▁الكر	-11.4015
▁liked	-11.4015
▁merkez	-11.4016
▁فی	-11.4016
▁ศาสตร	-11.4017
nama	-11.4021
▁πάρ	-11.4023
▁valla	-11.4025
try	-11.4025
▁pace	-11.4026
▁دوه	-11.4026
kept	-11.4027
▁ajal	-11.4028
▁tru	-11.4029
▁pasar	-11.4034
▁kı	-11.4034
았다	-11.4035
дели	-11.4037
▁paquete	-11.4037
▁روشن	-11.4037
▁başla	-11.404
จะม	-11.4041
▁juan	-11.4045
iec	-11.4046
▁കര	-11.4049
مز	-11.4049
▁fail	-11.405
▁vezes	-11.4051
▁friends	-11.4053
▁карт	-11.4053
изм	-11.4056
▁passer	-11.4058
▁xâ	-11.4063
▁eau	-11.4064
ился	-11.4064
vä	-11.4065
▁บค	-11.4067
ografi	-11.4068
▁gitti	-11.4069
▁деле	-11.407
安全	-11.407
ском	-11.407
▁takım	-11.4071
▁mama	-11.4072
▁effect	-11.4074
▁tror	-11.4074
▁fonction	-11.4074
세요	-11.4077
▁lights	-11.4078
heuer	-11.4081
вол	-11.4082
▁pist	-11.4085
▁सफल	-11.4086
▁جامع	-11.4086
inal	-11.4087
れている	-11.4087
▁право	-11.4089
▁пет	-11.409
▁آگ	-11.4093
▁процесс	-11.4096
▁confirm	-11.4096
▁usual	-11.4097
자들	-11.4098
▁temel	-11.41
ghe	-11.41
buk	-11.4101
▁moo	-11.4102
อาหาร	-11.4103
ประมาณ	-11.4105
▁بدل	-11.4105
بحث	-11.4106
دد	-11.4106
▁xvi	-11.4106
عود	-11.4107
ถนน	-11.4107
เคย	-11.4107
▁chart	-11.4108
▁yaklaşı	-11.4108
▁française	-11.411
▁method	-11.4111
dapat	-11.4112
高速	-11.4113
▁meest	-11.4114
でき	-11.4116
商家	-11.4117
وع	-11.4119
▁kolm	-11.4119
cular	-11.4119
▁tang	-11.4123
ټو	-11.4123
▁pad	-11.4126
ize	-11.4128
▁duż	-11.4128
▁сте	-11.4131
hau	-11.4131
แรง	-11.4133
▁صد	-11.4134
前の	-11.4134
▁مشکل	-11.4135
なかったので	-11.4136
احة	-11.4138
▁ادا	-11.4138
cd	-11.4139
▁etme	-11.414
▁hart	-11.414
▁gefallen	-11.414
ë	-11.4141
よかった	-11.4143
یست	-11.4145
ỏ	-11.4146
فضل	-11.4147
こんな	-11.4147
ιδ	-11.4149
▁zelf	-11.4149
▁ดค	-11.4149
べ	-11.4151
▁kedua	-11.4151
رسال	-11.4152
▁varia	-11.4152
▁시간	-11.4152
▁anterior	-11.4152
▁hög	-11.4153
就不	-11.4154
▁success	-11.4154
値	-11.4154
群	-11.4154
должен	-11.4154
乱	-11.4154
올	-11.4154
尾	-11.4154
補	-11.4154
▁futebol	-11.4154
▁january	-11.4154
▁samhälle	-11.4154
▁syrië	-11.4154
▁trouvé	-11.4154
▁đâu	-11.4154
▁деятельности	-11.4154
▁организации	-11.4154
▁практик	-11.4154
▁نیویارک	-11.4154
▁ஆய	-11.4154
▁ไข	-11.4154
▁아버지	-11.4154
班	-11.4154
盛	-11.4154
蛮	-11.4154
跑	-11.4154
迫	-11.4154
▁intelligent	-11.4154
▁sekolah	-11.4154
▁youtube	-11.4154
▁стандарт	-11.4154
▁شمېر	-11.4154
▁pocket	-11.4154
wijl	-11.4154
▁nguvu	-11.4154
▁útil	-11.4154
塑料	-11.4154
販売	-11.4154
显示	-11.4154
▁schwarz	-11.4154
▁android	-11.4154
▁daerah	-11.4154
▁سمندر	-11.4155
▁година	-11.4155
鉄道	-11.4155
▁mikro	-11.4155
▁didymu	-11.4155
▁zabitych	-11.4155
▁trotz	-11.4155
ชมป	-11.4155
▁ภายใน	-11.4156
▁cảnh	-11.4156
▁giriş	-11.4156
▁получить	-11.4156
▁هزار	-11.4156
行政	-11.4157
landı	-11.4157
或者	-11.4157
こう	-11.4157
▁tentang	-11.4157
▁стороны	-11.4157
▁musique	-11.4157
不可	-11.4158
▁മറ	-11.4158
▁основ	-11.4158
▁ibm	-11.4158
新しい	-11.4159
▁върх	-11.4159
▁scott	-11.416
还行	-11.4162
▁believe	-11.4162
▁يعمل	-11.4162
▁среди	-11.4163
▁اصل	-11.4164
▁چک	-11.4164
▁correr	-11.4164
▁kısa	-11.4165
▁맞	-11.4165
ното	-11.4165
▁revista	-11.4167
▁tutti	-11.4168
▁langue	-11.4168
▁वज	-11.4168
中國	-11.4169
time	-11.417
▁стол	-11.4171
υν	-11.4171
▁περιοχή	-11.4172
▁ίδιο	-11.4172
つき	-11.4172
▁biển	-11.4172
▁mambo	-11.4172
▁можем	-11.4173
▁loose	-11.4173
▁ferr	-11.4173
▁몰	-11.4174
▁sejak	-11.4174
▁kaks	-11.4174
▁مك	-11.4175
▁terry	-11.4175
▁exce	-11.4176
▁voz	-11.4176
▁encyclopedia	-11.4177
▁punya	-11.4179
▁essen	-11.4179
▁cómodo	-11.4179
▁täna	-11.4179
liche	-11.418
وخ	-11.4181
πλ	-11.4182
▁self	-11.4183
quin	-11.4185
▁타락한	-11.4185
欠	-11.4186
▁corea	-11.4186
▁bouton	-11.4188
▁consist	-11.4188
▁پایان	-11.4189
kim	-11.4189
stad	-11.4191
▁voc	-11.4191
▁juht	-11.4193
шел	-11.4194
▁antal	-11.4195
tari	-11.4196
▁libera	-11.4197
▁candidat	-11.4201
▁занима	-11.4202
rage	-11.4203
大小	-11.4204
この商品	-11.4206
的话	-11.4207
▁cruz	-11.4207
▁ipad	-11.4207
▁satisfaite	-11.4208
▁นเพ	-11.4208
îi	-11.4209
▁extreme	-11.4209
centricitate	-11.4209
▁asi	-11.4211
▁raamatu	-11.4212
▁นคร	-11.4214
▁angle	-11.4215
▁crime	-11.4216
▁east	-11.4216
▁spr	-11.4216
▁bestå	-11.4218
กองท	-11.422
▁sine	-11.422
っています	-11.4221
▁стран	-11.4221
▁result	-11.4223
▁riigi	-11.4223
αμε	-11.4224
▁hours	-11.4226
▁мир	-11.4226
зы	-11.4227
▁consul	-11.4227
好看	-11.4228
▁acaba	-11.4228
▁quería	-11.4232
ャ	-11.4232
▁vaca	-11.4233
▁annat	-11.4233
▁และม	-11.4234
▁logo	-11.4235
▁gaz	-11.4236
▁rand	-11.4237
▁жена	-11.4239
ać	-11.4241
ander	-11.4242
▁रज	-11.4243
▁अफ	-11.4243
▁natal	-11.4245
▁frei	-11.4245
▁train	-11.4245
▁använd	-11.4246
不安	-11.4246
汚れ	-11.4249
▁nucleare	-11.4251
▁ـ	-11.4252
ome	-11.4262
ことは	-11.4266
ици	-11.4266
が悪い	-11.4267
смотр	-11.4267
▁البلد	-11.4268
▁카	-11.4268
▁sola	-11.427
ầm	-11.4271
ệ	-11.4272
▁kuto	-11.4273
▁只是	-11.4273
▁oriental	-11.4275
▁zwischen	-11.4275
fort	-11.4276
ilen	-11.4277
▁ofisi	-11.4277
▁comida	-11.4277
▁現在	-11.4278
つく	-11.4279
μό	-11.428
▁يي	-11.4281
▁permett	-11.4281
份	-11.4286
▁пари	-11.4288
승	-11.4293
atum	-11.4293
ศาสตร	-11.4294
▁κοιν	-11.4294
날	-11.4295
ระบบ	-11.4295
ائر	-11.4296
▁đô	-11.4299
▁corri	-11.43
امبر	-11.4301
▁உண	-11.4301
▁simplement	-11.4302
kaç	-11.4304
▁kullanıl	-11.4304
▁انك	-11.4304
▁franco	-11.4305
▁سلم	-11.4307
▁είχα	-11.4309
tier	-11.4311
▁องน	-11.4311
▁حا	-11.4311
▁bring	-11.4312
▁nogen	-11.4312
▁sağ	-11.4314
▁eum	-11.4315
▁ลบ	-11.4316
عملية	-11.4317
نش	-11.4318
▁eest	-11.4319
▁gerek	-11.432
ขว	-11.432
έχουμε	-11.4321
▁способ	-11.4321
pula	-11.4322
▁رشت	-11.4323
▁الوطني	-11.4324
▁cómo	-11.4324
▁περισσότερο	-11.4326
▁educa	-11.4326
تهم	-11.4328
▁köp	-11.4328
app	-11.4329
mani	-11.4329
rup	-11.433
▁βρ	-11.433
▁пр	-11.4331
▁ç	-11.4333
▁apresenta	-11.4333
표	-11.4334
▁ataca	-11.4334
値段	-11.4334
構	-11.4335
産	-11.4335
▁sát	-11.4335
単	-11.4335
既	-11.4335
育	-11.4336
控	-11.4336
쪽	-11.4336
传	-11.4336
染	-11.4336
カメラ	-11.4336
俄	-11.4336
▁exemplo	-11.4336
▁kõige	-11.4336
▁phủ	-11.4336
▁rijdt	-11.4336
▁termasuk	-11.4336
▁đơn	-11.4336
▁вместе	-11.4336
▁فاضل	-11.4336
叫	-11.4336
嗎	-11.4336
▁bardzo	-11.4336
▁miljoen	-11.4336
▁đoán	-11.4336
▁serikali	-11.4336
▁چاہتے	-11.4336
台灣	-11.4336
ばかり	-11.4336
纸张	-11.4336
▁bright	-11.4337
▁ضروری	-11.4337
▁olacak	-11.4337
▁당신	-11.4337
▁região	-11.4337
印度	-11.4337
▁community	-11.4337
▁سيكون	-11.4337
▁ذکر	-11.4338
正式	-11.4338
▁въз	-11.4338
▁largo	-11.4338
▁field	-11.4339
▁يعني	-11.4341
▁hayır	-11.4341
▁правило	-11.4341
ế	-11.4341
▁quello	-11.4342
▁อให	-11.4342
рани	-11.4343
бы	-11.4344
▁박	-11.4344
▁μη	-11.4344
▁نقل	-11.4344
▁released	-11.4345
▁kiasi	-11.4345
▁находит	-11.4346
graph	-11.4346
なくなりました	-11.4346
onder	-11.4348
▁prendre	-11.4348
▁saw	-11.4348
▁فصل	-11.435
▁dwie	-11.4351
▁säga	-11.4351
기에	-11.4352
โย	-11.4355
▁наши	-11.4357
▁capit	-11.4358
▁aveva	-11.4358
▁sitzt	-11.4358
stellung	-11.4359
▁کردار	-11.4359
usb	-11.436
ison	-11.4361
▁مناسب	-11.4362
無い	-11.4362
▁είχαν	-11.4363
▁îl	-11.4363
▁چاپ	-11.4365
τσ	-11.4365
▁optisch	-11.4369
▁stro	-11.437
▁comenta	-11.437
▁тот	-11.4371
lust	-11.4371
▁мой	-11.4372
town	-11.4372
備	-11.4374
▁narcis	-11.4374
▁همدا	-11.4375
yordu	-11.4375
▁imagine	-11.4376
▁ธรรม	-11.4376
लत	-11.4381
diğini	-11.4382
▁иска	-11.4384
▁معرف	-11.4384
ï	-11.4385
▁five	-11.4386
قبل	-11.4386
▁kö	-11.4387
oor	-11.4388
▁可	-11.4388
▁bras	-11.4389
حفظ	-11.4389
▁lud	-11.4396
▁κάποι	-11.4397
▁võib	-11.4398
▁gesta	-11.4399
为了	-11.44
▁pata	-11.4402
▁thor	-11.4402
▁โ	-11.4403
▁imagen	-11.4404
งค	-11.4405
▁bob	-11.4406
▁alter	-11.4406
▁unei	-11.4407
▁insanlar	-11.4408
会社	-11.4409
▁belgi	-11.441
சப	-11.441
▁شمالی	-11.4411
▁พน	-11.4412
▁année	-11.4412
▁gav	-11.4413
ała	-11.4414
besar	-11.4414
▁cani	-11.4414
σης	-11.4416
のために	-11.4417
เหต	-11.4419
بند	-11.4419
▁spot	-11.442
iniz	-11.442
▁もう少し	-11.4423
▁टल	-11.4423
▁table	-11.4424
new	-11.4425
もう	-11.4425
▁خواند	-11.4426
▁belli	-11.4427
▁coche	-11.4428
وة	-11.4431
▁ende	-11.4431
▁μετα	-11.4431
▁کاری	-11.4432
▁somme	-11.4433
▁suu	-11.4435
▁okul	-11.4435
▁อนท	-11.4437
▁sä	-11.4439
▁archi	-11.4439
▁nuclear	-11.4439
عادة	-11.4441
▁barr	-11.4442
▁lip	-11.4442
▁bata	-11.4447
chip	-11.4449
▁هدف	-11.4453
genomen	-11.4454
etta	-11.4455
▁شی	-11.4455
▁我的	-11.4455
もある	-11.4455
ريد	-11.4458
▁republica	-11.4459
atu	-11.4465
▁zwart	-11.4466
▁سلسل	-11.4467
▁обо	-11.4468
icum	-11.4468
得到	-11.447
▁زد	-11.4476
物理	-11.4476
些	-11.448
ува	-11.448
▁имею	-11.4484
ικής	-11.4484
包括	-11.4485
▁ан	-11.4485
วอย	-11.4486
قامت	-11.4486
wood	-11.4487
▁yako	-11.4487
iana	-11.4488
▁kapı	-11.4489
ரணம	-11.449
▁awal	-11.4492
ôi	-11.4493
▁tai	-11.4493
▁lucr	-11.4493
となり	-11.4494
▁งร	-11.4494
lima	-11.4494
▁gebruikt	-11.4495
▁определен	-11.4496
充	-11.4497
ible	-11.4501
ика	-11.4501
▁กลาย	-11.4501
ίων	-11.4503
▁lahir	-11.4504
▁varias	-11.4505
はありません	-11.4505
▁پڑ	-11.4505
وى	-11.4506
▁probabil	-11.4507
bare	-11.451
▁минут	-11.4511
تغير	-11.4511
▁aici	-11.4512
raz	-11.4512
ینه	-11.4513
▁kunst	-11.4515
▁druck	-11.4516
▁wengi	-11.4516
azioni	-11.4516
étant	-11.4518
設	-11.4519
域	-11.4519
▁classe	-11.452
▁ouvert	-11.452
旅	-11.452
念	-11.452
透	-11.452
泡	-11.4521
办	-11.4521
閉	-11.4521
سپ	-11.4521
据	-11.4521
락	-11.4521
蘭	-11.4521
і	-11.4521
▁municipio	-11.4521
▁qualcosa	-11.4521
▁κόσμο	-11.4521
▁σχετικά	-11.4521
▁договор	-11.4521
▁عرص	-11.4521
▁대부분	-11.4521
たくさん	-11.4521
谷	-11.4521
▁έχετε	-11.4521
隔	-11.4521
▁처음	-11.4521
跡	-11.4521
▁magazine	-11.4521
肌	-11.4521
▁rapaz	-11.4521
▁τότε	-11.4521
系統	-11.4521
▁директор	-11.4521
▁계속	-11.4521
▁lavoro	-11.4521
▁cât	-11.4522
▁nguyên	-11.4522
▁너무	-11.4522
▁امروز	-11.4522
▁politique	-11.4522
luğu	-11.4522
▁않아	-11.4522
▁stopped	-11.4522
▁지금	-11.4522
▁kembali	-11.4522
▁موسم	-11.4523
▁همراه	-11.4523
▁repeti	-11.4523
▁amerykański	-11.4523
▁کئی	-11.4523
▁léger	-11.4524
▁свой	-11.4524
шком	-11.4524
▁cannot	-11.4524
มหาว	-11.4525
▁cukup	-11.4525
▁ہمارے	-11.4525
▁filho	-11.4525
首次	-11.4525
▁مجال	-11.4525
版本	-11.4526
▁อเส	-11.4526
▁التاريخ	-11.4526
▁گذشته	-11.4526
▁اعلام	-11.4526
孟买	-11.4526
▁کنیم	-11.4526
▁عقل	-11.4527
▁يقوم	-11.4527
演出	-11.4527
▁adrin	-11.4527
▁tích	-11.4527
▁zitten	-11.4527
▁matius	-11.4528
▁omdat	-11.4528
▁tahan	-11.4529
преки	-11.4529
▁ιστορία	-11.4529
▁پای	-11.4531
▁چرا	-11.4532
▁รณ	-11.4532
▁المدن	-11.4535
错	-11.4536
าง	-11.4536
cido	-11.4536
ească	-11.4536
▁سبيل	-11.4536
well	-11.4537
eceği	-11.4538
▁منزل	-11.4539
การแสดง	-11.4539
▁alexa	-11.4539
▁potest	-11.4539
νά	-11.4542
▁pp	-11.4543
值得	-11.4544
กป	-11.4546
mü	-11.4546
▁robust	-11.4546
▁उपन	-11.4547
以下	-11.4549
रव	-11.4549
▁αντι	-11.455
▁sant	-11.455
mate	-11.455
nță	-11.4552
▁stellen	-11.4553
الم	-11.4553
▁meus	-11.4554
рд	-11.4554
ствен	-11.4556
▁ระด	-11.4556
▁taht	-11.4556
▁prince	-11.4556
スター	-11.4557
▁بہتر	-11.4557
▁siam	-11.4558
▁патриарх	-11.4559
▁separa	-11.456
▁chuy	-11.456
▁πά	-11.456
▁اچھا	-11.456
▁carol	-11.456
▁şeyi	-11.456
▁கன	-11.4561
▁گردید	-11.4562
▁altro	-11.4562
บก	-11.4562
とした	-11.4563
έτ	-11.4564
▁yote	-11.4565
▁sitio	-11.4565
▁اپنا	-11.4566
▁南	-11.4568
lük	-11.4571
いました	-11.4573
▁mg	-11.4573
▁เหต	-11.4573
راج	-11.4574
gent	-11.4574
▁좋	-11.4577
дни	-11.4577
▁lunds	-11.4579
真是	-11.4579
▁สถานท	-11.458
bert	-11.4581
خوا	-11.4581
▁همین	-11.4582
▁ofta	-11.4584
▁gøre	-11.4584
▁positive	-11.4584
вые	-11.4586
▁média	-11.4586
▁vrea	-11.4586
▁manche	-11.4586
▁beach	-11.4586
چر	-11.4587
▁エ	-11.4588
▁गन	-11.4589
▁ولم	-11.459
▁تب	-11.459
hân	-11.4592
▁comodo	-11.4594
▁nerv	-11.4595
▁lug	-11.4597
便利	-11.4597
▁pow	-11.4598
หาย	-11.4605
▁کسان	-11.4607
اسب	-11.4608
▁protect	-11.461
▁买	-11.4612
▁برنامج	-11.4612
▁حضور	-11.4613
bot	-11.4613
▁daan	-11.4615
حمل	-11.4616
▁他们	-11.4618
▁antiqu	-11.4619
ทอม	-11.462
▁metod	-11.4621
▁tradi	-11.4622
▁ரர	-11.4624
▁fark	-11.4625
idir	-11.4626
pot	-11.4627
▁خال	-11.4628
โอ	-11.4628
aten	-11.4629
▁مص	-11.4631
لز	-11.4631
είτε	-11.4631
▁penge	-11.4631
▁resmi	-11.4631
▁toate	-11.4631
不用	-11.4633
ræ	-11.4633
▁urb	-11.4633
▁我們	-11.4634
أس	-11.4634
▁origin	-11.4635
▁homo	-11.4635
inci	-11.4636
▁세기	-11.4636
▁dock	-11.4636
шли	-11.4637
▁επ	-11.464
ându	-11.4641
▁hong	-11.4642
▁australian	-11.4643
▁visa	-11.4644
▁тъ	-11.4645
▁رکھن	-11.4646
▁priv	-11.4652
▁xa	-11.4655
▁شیر	-11.4656
แมร	-11.4657
▁sini	-11.4658
ovi	-11.4659
スク	-11.4661
▁ход	-11.4662
最後	-11.4662
âng	-11.4664
riz	-11.4664
▁perform	-11.4666
▁سأ	-11.4667
▁документ	-11.4668
μένη	-11.4675
▁voci	-11.4675
▁جین	-11.4676
▁งว	-11.4676
вести	-11.4677
なくなった	-11.4678
▁dol	-11.4678
▁boek	-11.4679
cü	-11.4679
ceux	-11.468
▁กม	-11.468
▁contento	-11.468
put	-11.4683
λοιπό	-11.4683
是在	-11.4683
but	-11.4684
นะ	-11.4685
▁vino	-11.4685
▁हन	-11.4687
она	-11.4687
以后	-11.4689
وړ	-11.469
▁auteur	-11.4692
چی	-11.4692
▁descri	-11.4693
olup	-11.4693
▁põhja	-11.4694
▁transforma	-11.4694
显	-11.4696
ۓ	-11.4699
▁americano	-11.4699
▁سنت	-11.47
aus	-11.4702
现	-11.4703
อากาศ	-11.4703
▁nyingi	-11.4704
ști	-11.4705
▁eye	-11.4706
映	-11.4706
ront	-11.4707
ประชาชน	-11.4708
เฉพาะ	-11.4709
▁орган	-11.4709
离	-11.4709
興	-11.4709
承	-11.471
สาธารณ	-11.471
▁предлага	-11.471
ざ	-11.471
ふ	-11.471
渡	-11.471
雑	-11.471
협	-11.471
ۀ	-11.471
▁bicicleta	-11.471
▁gjorde	-11.471
▁horrible	-11.471
▁också	-11.471
▁rapariga	-11.471
▁remboursement	-11.471
▁tatoeba	-11.471
▁овчинников	-11.471
▁پوهنتون	-11.471
▁ปดาห	-11.471
▁오페라	-11.471
羅	-11.471
腰	-11.471
帰	-11.471
职	-11.471
mètre	-11.471
▁guerre	-11.471
▁absolutely	-11.471
▁dikkat	-11.471
収納	-11.471
▁disputa	-11.471
保护	-11.471
▁hiçbir	-11.471
▁باقی	-11.471
▁monitor	-11.471
▁kể	-11.471
▁چاہتا	-11.471
ώντας	-11.471
▁프랑스어	-11.471
▁alexandr	-11.471
のと	-11.471
変更	-11.4711
▁الماضي	-11.4711
▁حسن	-11.4711
γα	-11.4711
▁biến	-11.4711
大丈夫	-11.4711
▁öyle	-11.4711
▁ràng	-11.4711
▁либо	-11.4712
▁جاتے	-11.4712
▁yanni	-11.4712
▁anyone	-11.4712
▁trăm	-11.4712
▁خواهم	-11.4713
▁έπ	-11.4713
▁วยงาน	-11.4713
▁genç	-11.4714
▁christian	-11.4714
▁enkele	-11.4714
▁المثال	-11.4714
▁supposed	-11.4715
▁according	-11.4715
▁çalışan	-11.4716
▁sprawie	-11.4717
▁poz	-11.4717
▁normale	-11.4717
にくい	-11.4717
▁estudo	-11.4718
▁виду	-11.4718
tv	-11.4718
เวอร	-11.4719
▁definitiv	-11.4719
bung	-11.472
▁totalmente	-11.4721
▁yeniden	-11.4721
▁đầ	-11.4721
▁seen	-11.4721
बर	-11.4722
▁mét	-11.4722
▁bekle	-11.4722
除了	-11.4723
▁مشر	-11.4723
▁такие	-11.4723
▁lamp	-11.4724
▁bekend	-11.4724
▁perfectly	-11.4725
liquid	-11.4725
▁好	-11.4725
▁altın	-11.4726
سٹر	-11.4729
▁değiştir	-11.4729
▁உயர	-11.4729
▁وان	-11.4729
▁mås	-11.4731
lında	-11.4731
▁jemand	-11.4732
rique	-11.4732
▁이들	-11.4734
dauer	-11.4736
lov	-11.4737
σει	-11.4737
อส	-11.4737
station	-11.4738
acci	-11.4739
pped	-11.4739
▁letzte	-11.474
▁модел	-11.474
▁tartu	-11.4742
▁gek	-11.4743
▁euros	-11.4745
ものは	-11.4745
▁sanger	-11.4747
rata	-11.4747
自由	-11.4749
▁grosse	-11.475
▁seri	-11.4754
▁lide	-11.4754
miseks	-11.4755
▁pater	-11.4755
hit	-11.4756
▁kogu	-11.4758
棒	-11.4762
▁سوات	-11.4762
stellen	-11.4763
▁beri	-11.4764
لدينا	-11.4766
key	-11.4767
▁தவர	-11.4768
டல	-11.4768
▁الاتصالات	-11.4768
อยาก	-11.4769
пер	-11.477
▁sf	-11.4773
امت	-11.4775
▁ue	-11.4776
했으	-11.4776
看起来	-11.4777
▁ตถ	-11.478
▁کور	-11.4784
▁βι	-11.4785
▁kart	-11.4786
一起	-11.4787
▁açı	-11.4788
كم	-11.4788
▁limite	-11.4789
خور	-11.4789
▁dow	-11.4794
▁심	-11.4794
▁bence	-11.4794
ге	-11.4794
▁true	-11.4794
サー	-11.4794
▁elas	-11.4796
▁vice	-11.4796
▁indian	-11.4796
▁рок	-11.4797
kuju	-11.4797
▁σπ	-11.4798
▁فارسی	-11.48
▁prac	-11.48
▁inicia	-11.4802
▁mill	-11.4803
▁geschenk	-11.4804
プラ	-11.4807
chu	-11.4808
▁vesti	-11.4808
▁centrum	-11.4808
▁നമ	-11.481
بية	-11.4811
fest	-11.4811
▁uygulama	-11.4812
▁büyü	-11.4815
▁класс	-11.4815
▁petits	-11.4818
▁பள	-11.4819
ملك	-11.4822
▁inform	-11.4824
फल	-11.4825
pal	-11.4825
期間	-11.483
tje	-11.4831
送货	-11.4832
▁partido	-11.4832
الی	-11.4832
感じです	-11.4833
▁سعد	-11.4833
▁إنه	-11.4835
▁jane	-11.4836
▁الأول	-11.4839
レン	-11.4839
เหม	-11.484
▁سامن	-11.4841
▁λα	-11.4842
▁دلار	-11.4842
▁drum	-11.4843
chin	-11.4844
▁double	-11.4844
▁친	-11.4846
▁игр	-11.4849
كرة	-11.4851
不是很	-11.4851
▁तट	-11.4852
림	-11.4853
送到	-11.4853
çu	-11.4854
ваш	-11.4854
▁tablet	-11.4856
になります	-11.4856
การร	-11.4857
▁huvudsak	-11.486
▁एज	-11.4861
▁为什么	-11.4861
съ	-11.4864
▁meny	-11.4864
▁giữ	-11.4865
▁hoch	-11.4867
انگ	-11.4868
▁låt	-11.4869
▁regal	-11.4869
▁동안	-11.487
▁selec	-11.4872
▁用了	-11.4874
bord	-11.4875
vus	-11.4877
▁จํานวน	-11.4878
られて	-11.488
▁debe	-11.4881
벌	-11.4881
大きく	-11.4882
되고	-11.4882
▁произ	-11.4883
شتر	-11.4884
ith	-11.4888
▁plate	-11.4889
▁возможно	-11.4891
容量	-11.4892
ū	-11.4892
▁rome	-11.4892
ũ	-11.4893
أخذ	-11.4894
人口	-11.4894
▁possu	-11.4895
▁tube	-11.4897
혼	-11.4899
▁sebelum	-11.4899
类	-11.4899
ường	-11.49
▁اليمن	-11.49
▁çocuk	-11.49
▁mani	-11.49
سازی	-11.4901
乐	-11.4902
關	-11.4902
证	-11.4902
敗	-11.4902
圧	-11.4902
介	-11.4902
淡	-11.4902
膜	-11.4902
▁einwandfrei	-11.4902
▁malheureusement	-11.4902
▁ragazza	-11.4902
▁البيانات	-11.4902
▁이승만	-11.4902
チーム	-11.4902
網	-11.4902
ประเภท	-11.4902
▁disebut	-11.4902
▁kawaida	-11.4902
▁prantsus	-11.4902
▁concentra	-11.4902
▁written	-11.4902
谁	-11.4902
▁vijf	-11.4902
▁beschreibung	-11.4902
ヴィ	-11.4902
▁blood	-11.4902
描述	-11.4902
▁उठ	-11.4902
▁deutlich	-11.4903
พรรค	-11.4903
▁servicio	-11.4903
▁deuxième	-11.4903
▁kuliko	-11.4903
▁velvet	-11.4903
ネジ	-11.4903
▁current	-11.4903
唯一	-11.4903
車両	-11.4903
dienst	-11.4904
▁experience	-11.4904
▁mellan	-11.4905
▁yine	-11.4905
▁درلود	-11.4905
▁pensé	-11.4905
▁olma	-11.4905
▁olnud	-11.4905
▁holland	-11.4905
▁either	-11.4905
▁environment	-11.4905
▁tagasi	-11.4905
▁أصبح	-11.4905
▁критик	-11.4906
did	-11.4907
गह	-11.4908
▁inşa	-11.4909
▁wor	-11.4909
▁bruit	-11.4909
▁ขอ	-11.491
▁golpe	-11.491
▁jangan	-11.4911
▁santo	-11.4911
▁محر	-11.4912
▁există	-11.4913
▁اولین	-11.4913
▁daniel	-11.4913
kni	-11.4913
▁сил	-11.4914
ؤں	-11.4914
▁негов	-11.4916
▁छल	-11.4918
▁lieber	-11.4919
فو	-11.492
▁baada	-11.492
ดา	-11.4923
μον	-11.4923
δη	-11.4924
▁ラレド	-11.4926
iwango	-11.4927
▁conseil	-11.4928
▁orange	-11.4928
▁road	-11.4931
توقف	-11.4934
▁buying	-11.4935
▁preso	-11.4936
▁drama	-11.4939
安定	-11.494
▁真	-11.494
▁धर	-11.4941
▁sở	-11.4944
▁semanas	-11.4945
▁teve	-11.4945
▁regular	-11.4946
▁าไป	-11.4947
▁cây	-11.4947
▁षय	-11.4948
▁ذهب	-11.495
ahan	-11.495
▁jeune	-11.4951
▁musical	-11.4951
بین	-11.4952
โน	-11.4956
リア	-11.4957
صدر	-11.4957
▁பய	-11.4958
▁призна	-11.4959
▁षत	-11.496
えた	-11.4962
▁pontos	-11.4962
▁regula	-11.4963
▁قل	-11.4963
mir	-11.4964
▁فلسف	-11.4964
▁hoofd	-11.4964
▁grav	-11.4966
▁ذر	-11.4966
▁havia	-11.4966
▁fum	-11.4968
زال	-11.4968
▁请	-11.4968
▁które	-11.4969
▁arch	-11.497
xit	-11.497
▁bett	-11.4972
raj	-11.4972
聞	-11.4973
falls	-11.4973
▁写真	-11.4976
▁таким	-11.4978
cchi	-11.4978
▁glad	-11.4979
▁لكي	-11.4982
▁introduc	-11.4982
दम	-11.4983
▁allem	-11.4983
▁زوج	-11.4985
純正	-11.4985
شور	-11.4987
▁enfant	-11.4988
▁کلی	-11.499
取れ	-11.499
iska	-11.4991
▁regio	-11.4993
τος	-11.4993
سة	-11.4995
了一个	-11.4998
mbre	-11.5003
يدي	-11.5003
▁นป	-11.5005
عهد	-11.5006
ており	-11.5006
▁projeto	-11.5006
unun	-11.5007
osas	-11.5009
▁strand	-11.5009
▁khí	-11.5011
▁லப	-11.5011
▁نمود	-11.5014
▁lag	-11.5014
ثق	-11.5015
liste	-11.5015
πως	-11.5015
▁org	-11.5016
าซ	-11.5016
▁그것	-11.5017
▁abb	-11.5018
▁laten	-11.5018
▁late	-11.5019
▁party	-11.5019
▁بدلا	-11.502
سيا	-11.5021
▁给	-11.5021
மன	-11.5022
▁ساح	-11.5022
▁dado	-11.5025
▁област	-11.5026
ivos	-11.5026
的感觉	-11.5027
▁premi	-11.5028
▁universal	-11.5031
чета	-11.5032
گا	-11.5032
▁talya	-11.5033
زر	-11.5033
ものを	-11.5033
▁hil	-11.5038
▁precis	-11.5038
▁แทน	-11.5039
ologie	-11.5039
스트	-11.504
▁stri	-11.5043
いません	-11.5043
▁compara	-11.5044
▁خلک	-11.505
▁форм	-11.5051
سائل	-11.5053
▁român	-11.5055
▁групп	-11.5057
▁хоч	-11.5057
▁پات	-11.5059
يران	-11.506
▁पय	-11.5064
▁corpo	-11.5064
▁слова	-11.5064
คนท	-11.5065
▁kuku	-11.5066
▁griff	-11.5069
▁私	-11.507
▁सफ	-11.507
▁invent	-11.5071
คา	-11.5071
уют	-11.5073
ying	-11.5073
簡単	-11.5073
▁beat	-11.5077
βο	-11.5077
使っていた	-11.5079
早く	-11.5079
ίσει	-11.5079
mission	-11.508
られている	-11.508
ائع	-11.5082
句	-11.5082
curi	-11.5083
▁nós	-11.5085
druck	-11.5085
▁nunc	-11.5085
гу	-11.5086
▁receive	-11.5086
пъл	-11.5086
살	-11.5087
vido	-11.5088
päeva	-11.5088
安く	-11.5089
▁moyen	-11.509
σί	-11.5091
ников	-11.5092
system	-11.5092
▁acum	-11.5093
▁آنجا	-11.5094
ほ	-11.5095
يدة	-11.5095
กระ	-11.5096
테	-11.5096
ständig	-11.5096
议	-11.5096
額	-11.5097
節	-11.5097
设	-11.5098
▁child	-11.5098
賽	-11.5098
遊	-11.5098
希	-11.5098
察	-11.5098
撃	-11.5098
罪	-11.5098
血	-11.5098
牛	-11.5098
フィルム	-11.5098
志	-11.5098
乳	-11.5098
實	-11.5098
江	-11.5098
▁случи	-11.5098
卫	-11.5098
▁araştırma	-11.5098
▁españa	-11.5098
▁mạnh	-11.5098
▁nhập	-11.5098
▁völlig	-11.5098
▁xuống	-11.5098
▁μέρος	-11.5098
▁нибудь	-11.5098
▁факт	-11.5098
▁اتفاق	-11.5098
▁الأخرى	-11.5098
▁انرژ	-11.5098
▁شناخت	-11.5098
▁فوتبال	-11.5098
▁پہاڑ	-11.5098
▁இம	-11.5098
播	-11.5098
▁uygun	-11.5098
▁течение	-11.5098
▁รายงาน	-11.5098
億	-11.5098
甲	-11.5098
變	-11.5098
讓	-11.5098
関係	-11.5098
▁heavy	-11.5098
▁middle	-11.5098
洋	-11.5098
▁vuelta	-11.5098
面倒	-11.5098
▁کاروبار	-11.5098
認識	-11.5098
처럼	-11.5098
▁church	-11.5098
▁phrase	-11.5098
أعمال	-11.5099
▁sondern	-11.5099
▁tochter	-11.5099
关系	-11.5099
ใด	-11.5099
▁αρκετά	-11.5099
经常	-11.5099
▁pouvoir	-11.5099
▁حفاظت	-11.5099
▁ehk	-11.5099
iro	-11.5099
▁mahalle	-11.5099
▁ญาต	-11.5099
▁تاثير	-11.5099
▁bisschen	-11.5099
▁bau	-11.5099
▁escudo	-11.51
▁script	-11.51
▁río	-11.51
ベル	-11.5101
▁deutsch	-11.5101
相当	-11.5101
ίλ	-11.5101
▁gó	-11.5101
▁finish	-11.5102
صنع	-11.5102
▁لباس	-11.5102
▁khoảng	-11.5102
▁josé	-11.5102
▁kabla	-11.5103
▁expert	-11.5103
▁nyingine	-11.5104
▁باہر	-11.5105
दस	-11.5105
▁lainnya	-11.5106
▁راغل	-11.5106
▁oyuncu	-11.5107
▁जम	-11.5107
▁جام	-11.5107
▁habebat	-11.5108
нных	-11.5108
▁neredey	-11.5108
guard	-11.5108
gui	-11.5108
▁contain	-11.5109
▁alın	-11.5109
▁κάνεις	-11.5109
▁guy	-11.5109
▁incidente	-11.5109
▁gps	-11.511
▁ولري	-11.5111
▁draw	-11.5112
คณะ	-11.5113
▁الام	-11.5114
▁سوال	-11.5115
ரப	-11.5115
▁ifade	-11.5116
iyorum	-11.5116
▁눈	-11.512
▁กค	-11.512
▁nuovo	-11.512
▁konser	-11.5121
ฆ	-11.5121
▁baba	-11.5123
▁وړاند	-11.5126
iej	-11.5128
ème	-11.513
気が	-11.513
▁trae	-11.5131
▁inclui	-11.5132
が少し	-11.5132
توقع	-11.5133
▁تماما	-11.5133
يقة	-11.5134
▁urbe	-11.5135
▁yapıyor	-11.5136
▁بولا	-11.5137
▁ईस	-11.5137
saksi	-11.5138
不够	-11.5138
▁kont	-11.5139
ตร	-11.514
っても	-11.5141
▁อาร	-11.5141
فصل	-11.5141
rò	-11.5142
▁allt	-11.5143
▁นล	-11.5143
▁yarı	-11.5143
▁regional	-11.5145
▁daarna	-11.5145
▁μεγάλο	-11.5145
▁தய	-11.5145
▁già	-11.5146
▁possibili	-11.5146
ときに	-11.5147
▁jury	-11.5147
تار	-11.5149
itatum	-11.5151
▁revis	-11.5151
▁giảm	-11.5152
▁tommy	-11.5153
▁ประมาณ	-11.5153
▁teile	-11.5153
สก	-11.5153
▁starr	-11.5154
▁samt	-11.5154
teken	-11.5154
tagen	-11.5154
▁plac	-11.5155
ız	-11.5157
▁email	-11.5159
▁شبك	-11.516
லம	-11.5161
▁meio	-11.5161
▁seguir	-11.5163
tische	-11.5163
▁romano	-11.5165
▁tenu	-11.5165
▁hale	-11.5165
▁apel	-11.5165
ことに	-11.5165
ېل	-11.5166
▁rey	-11.5166
プロ	-11.5166
▁indiana	-11.5166
レス	-11.5169
▁tena	-11.517
kiwa	-11.517
skap	-11.5171
▁lazim	-11.5171
▁않	-11.5171
دور	-11.5172
▁deal	-11.5172
кроме	-11.5172
▁inclusiv	-11.5173
▁ایم	-11.5174
▁علمی	-11.5174
▁wahr	-11.5175
年月日	-11.5175
▁zien	-11.5177
▁abu	-11.5178
▁vaba	-11.5178
ούμε	-11.5178
否	-11.5178
▁نیا	-11.5181
▁contenta	-11.5183
▁此	-11.5183
▁monter	-11.5184
▁использова	-11.5184
فار	-11.5186
digt	-11.5186
bilidad	-11.5187
▁semaine	-11.5188
लम	-11.5189
▁huy	-11.5191
dale	-11.5191
▁torre	-11.5191
iskt	-11.5193
▁mena	-11.5195
▁سار	-11.5196
▁vrouwen	-11.5196
تال	-11.5198
hib	-11.5198
▁самом	-11.5199
▁бол	-11.52
ления	-11.5201
▁huh	-11.5201
▁совета	-11.5204
行き	-11.5205
ทอง	-11.5205
▁offen	-11.5206
▁金	-11.5206
▁friend	-11.5207
[...]
